{
  "version": "1.0",
  "truncation": null,
  "padding": null,
  "added_tokens": [
    {
      "id": 0,
      "content": "<pad>",
      "lstrip": false,
      "normalized": false,
      "rstrip": false,
      "single_word": false,
      "special": true
    },
    {
      "id": 1,
      "content": "<unk>",
      "lstrip": false,
      "normalized": false,
      "rstrip": false,
      "single_word": false,
      "special": true
    },
    {
      "id": 2,
      "content": "[CLS]",
      "lstrip": false,
      "normalized": false,
      "rstrip": false,
      "single_word": false,
      "special": true
    },
    {
      "id": 3,
      "content": "[SEP]",
      "lstrip": false,
      "normalized": false,
      "rstrip": false,
      "single_word": false,
      "special": true
    },
    {
      "id": 4,
      "content": "[MASK]",
      "lstrip": true,
      "normalized": false,
      "rstrip": false,
      "single_word": false,
      "special": true
    }
  ],
  "normalizer": {
    "type": "NFKC",
    "lowercase": true
  },
  "pre_tokenizer": {
    "type": "Metaspace",
    "replacement": "▁",
    "prepend_scheme": "always",
    "split": false
  },
  "post_processor": {
    "type": "TemplateProcessing",
    "single": [
      {
        "SpecialToken": {
          "id": "[CLS]",
          "type_id": 0
        }
      },
      {
        "Sequence": {
          "id": "A",
          "type_id": 0
        }
      },
      {
        "SpecialToken": {
          "id": "[SEP]",
          "type_id": 0
        }
      }
    ],
    "pair": [
      {
        "SpecialToken": {
          "id": "[CLS]",
          "type_id": 0
        }
      },
      {
        "Sequence": {
          "id": "A",
          "type_id": 0
        }
      },
      {
        "SpecialToken": {
          "id": "[SEP]",
          "type_id": 0
        }
      },
      {
        "Sequence": {
          "id": "B",
          "type_id": 1
        }
      },
      {
        "SpecialToken": {
          "id": "[SEP]",
          "type_id": 1
        }
      }
    ],
    "special_tokens": {
      "[CLS]": {
        "id": "[CLS]",
        "ids": [
          2
        ],
        "tokens": [
          "[CLS]"
        ]
      },
      "[SEP]": {
        "id": "[SEP]",
        "ids": [
          3
        ],
        "tokens": [
          "[SEP]"
        ]
      }
    }
  },
  "decoder": {
    "type": "Sequence",
    "decoders": [
      {
        "type": "Replace",
        "pattern": {
          "String": "▁"
        },
        "content": " "
      },
      {
        "type": "ByteFallback"
      },
      {
        "type": "Fuse"
      }
    ]
  },
  "model": {
    "type": "BPE",
    "dropout": null,
    "unk_token": "<unk>",
    "continuing_subword_prefix": null,
    "end_of_word_suffix": null,
    "fuse_unk": false,
    "byte_fallback": false,
    "ignore_merges": true,
    "vocab": {
      "<pad>": 0,
      "<unk>": 1,
      "[CLS]": 2,
      "[SEP]": 3,
      "[MASK]": 4,
      "▁の": 5,
      "▁、": 6,
      "▁に": 7,
      "▁。": 8,
      "▁で": 9,
      "▁は": 10,
      "▁た": 11,
      "▁て": 12,
      "▁を": 13,
      "▁が": 14,
      "▁と": 15,
      "▁な": 16,
      "▁し": 17,
      "▁い": 18,
      "▁ま": 19,
      "▁も": 20,
      "▁1": 21,
      "▁あ": 22,
      "▁か": 23,
      "▁こ": 24,
      "▁さ": 25,
      "▁れ": 26,
      "▁(": 27,
      "▁年": 28,
      "▁2": 29,
      "▁す": 30,
      "▁・": 31,
      "▁)": 32,
      "▁.": 33,
      "▁よ": 34,
      "▁「": 35,
      "▁」": 36,
      "▁そ": 37,
      "▁する": 38,
      "▁ます": 39,
      "▁お": 40,
      "▁日": 41,
      "▁いる": 42,
      "▁から": 43,
      "▁こと": 44,
      "▁ある": 45,
      "▁です": 46,
      "▁だ": 47,
      "▁や": 48,
      "▁大": 49,
      "▁ない": 50,
      "▁ア": 51,
      "▁月": 52,
      "▁20": 53,
      "▁人": 54,
      "▁ス": 55,
      "▁一": 56,
      "▁3": 57,
      "▁中": 58,
      "▁19": 59,
      "▁a": 60,
      "▁t": 61,
      "▁時": 62,
      "▁つ": 63,
      "▁いう": 64,
      "▁その": 65,
      "▁出": 66,
      "▁フ": 67,
      "▁シ": 68,
      "▁ら": 69,
      "▁まし": 70,
      "▁あり": 71,
      "▁なっ": 72,
      "▁コ": 73,
      "▁この": 74,
      "▁よう": 75,
      "▁自": 76,
      "in": 77,
      "▁カ": 78,
      "▁など": 79,
      "▁4": 80,
      "▁!": 81,
      "▁ん": 82,
      "▁s": 83,
      "▁サ": 84,
      "▁的": 85,
      "▁行": 86,
      "▁c": 87,
      "リー": 88,
      "▁イ": 89,
      "ット": 90,
      "ック": 91,
      "er": 92,
      "▁後": 93,
      "▁マ": 94,
      "ール": 95,
      "▁5": 96,
      "▁でき": 97,
      "▁れる": 98,
      "▁見": 99,
      "▁バ": 100,
      "▁方": 101,
      "▁同": 102,
      "▁201": 103,
      "▁本": 104,
      "▁生": 105,
      "▁ため": 106,
      "on": 107,
      "▁地": 108,
      "▁『": 109,
      "▁』": 110,
      "▁られ": 111,
      "▁会": 112,
      "▁オ": 113,
      "▁く": 114,
      "▁思": 115,
      "▁発": 116,
      "ター": 117,
      "00": 118,
      "▁ラ": 119,
      "▁高": 120,
      "▁もの": 121,
      "▁最": 122,
      "▁者": 123,
      "▁作": 124,
      "▁上": 125,
      "▁市": 126,
      "ング": 127,
      "▁プ": 128,
      "▁国": 129,
      "▁より": 130,
      "▁以": 131,
      "▁まで": 132,
      "ート": 133,
      "▁日本": 134,
      "▁ク": 135,
      "▁なる": 136,
      "▁場": 137,
      "▁メ": 138,
      "▁事": 139,
      "he": 140,
      "▁学": 141,
      "▁m": 142,
      "▁分": 143,
      "▁ば": 144,
      "▁入": 145,
      "▁エ": 146,
      "▁レ": 147,
      "▁デ": 148,
      "▁p": 149,
      "かっ": 150,
      "▁パ": 151,
      "ント": 152,
      "▁b": 153,
      "▁部": 154,
      "▁へ": 155,
      "▁また": 156,
      "▁多": 157,
      "▁それ": 158,
      "▁使": 159,
      "▁前": 160,
      "▁対": 161,
      "▁ご": 162,
      "re": 163,
      "▁リ": 164,
      "▁6": 165,
      "▁開": 166,
      "▁キ": 167,
      "▁f": 168,
      "▁新": 169,
      "▁ト": 170,
      "スト": 171,
      "▁これ": 172,
      "▁あっ": 173,
      "▁言": 174,
      "▁今": 175,
      "▁第": 176,
      "▁w": 177,
      "▁?": 178,
      "ラン": 179,
      "▁全": 180,
      "▁せ": 181,
      "しい": 182,
      "▁通": 183,
      "▁チ": 184,
      "▁ど": 185,
      "▁ブ": 186,
      "an": 187,
      "▁ロ": 188,
      "ーム": 189,
      "▁:": 190,
      "▁目": 191,
      "ード": 192,
      "▁ね": 193,
      "▁200": 194,
      "▁き": 195,
      "▁現": 196,
      "▁実": 197,
      "▁なり": 198,
      "or": 199,
      "▁ド": 200,
      "▁名": 201,
      "▁7": 202,
      "▁家": 203,
      "▁機": 204,
      "▁関": 205,
      "▁なく": 206,
      "▁ほ": 207,
      "▁東": 208,
      "▁d": 209,
      "▁戦": 210,
      "en": 211,
      "▁小": 212,
      "▁さん": 213,
      "▁タ": 214,
      "ース": 215,
      "ティ": 216,
      "▁内": 217,
      "▁み": 218,
      "▁県": 219,
      "▁ジ": 220,
      "at": 221,
      "▁10": 222,
      "▁8": 223,
      "▁選": 224,
      "▁the": 225,
      "▁世": 226,
      "ョン": 227,
      "▁o": 228,
      "▁ハ": 229,
      "▁当": 230,
      "▁ませ": 231,
      "▁でし": 232,
      "▁手": 233,
      "▁感": 234,
      "▁長": 235,
      "▁気": 236,
      "▁特": 237,
      "▁回": 238,
      "▁主": 239,
      "ar": 240,
      "it": 241,
      "▁ず": 242,
      "ュー": 243,
      "▁無": 244,
      "▁テ": 245,
      "▁9": 246,
      "▁受": 247,
      "▁公": 248,
      "▁取": 249,
      "▁セ": 250,
      "▁不": 251,
      "▁h": 252,
      "▁所": 253,
      "ップ": 254,
      "▁n": 255,
      "▁l": 256,
      "ょう": 257,
      "▁結": 258,
      "▁下": 259,
      "イン": 260,
      "is": 261,
      "える": 262,
      "▁記": 263,
      "▁性": 264,
      "▁ち": 265,
      "▁ウ": 266,
      "▁経": 267,
      "▁私": 268,
      "al": 269,
      "▁-": 270,
      "▁場合": 271,
      "▁変": 272,
      "▁車": 273,
      "▁わ": 274,
      "▁できる": 275,
      "▁モ": 276,
      "▁教": 277,
      "ション": 278,
      "▁初": 279,
      "▁つい": 280,
      "es": 281,
      "▁おり": 282,
      "▁円": 283,
      "ed": 284,
      "ンド": 285,
      "▁代": 286,
      "▁だっ": 287,
      "▁そう": 288,
      "▁ホ": 289,
      "▁用": 290,
      "▁グ": 291,
      "▁だけ": 292,
      "イト": 293,
      "▁g": 294,
      "▁ダ": 295,
      "▁ポ": 296,
      "▁たい": 297,
      "ージ": 298,
      "▁しか": 299,
      "▁12": 300,
      "ic": 301,
      "▁連": 302,
      "▁設": 303,
      "▁しま": 304,
      "▁合": 305,
      "▁っ": 306,
      "▁書": 307,
      "▁電": 308,
      "▁相": 309,
      "▁金": 310,
      "▁文": 311,
      "▁運": 312,
      "▁知": 313,
      "▁駅": 314,
      "▁数": 315,
      "ディ": 316,
      "▁社": 317,
      "▁思い": 318,
      "▁18": 319,
      "▁表": 320,
      "▁何": 321,
      "▁持": 322,
      "んな": 323,
      "▁ベ": 324,
      "▁他": 325,
      "▁う": 326,
      "▁体": 327,
      "▁ボ": 328,
      "▁可": 329,
      "▁0": 330,
      "▁時間": 331,
      "▁ミ": 332,
      "▁化": 333,
      "ro": 334,
      "▁子": 335,
      "▁11": 336,
      "さい": 337,
      "▁平": 338,
      "▁食": 339,
      "▁なら": 340,
      "リア": 341,
      "▁け": 342,
      "▁先": 343,
      "▁自分": 344,
      "▁ビ": 345,
      "▁様": 346,
      "▁少": 347,
      "▁よっ": 348,
      "▁考": 349,
      "▁必": 350,
      "▁水": 351,
      "▁間": 352,
      "▁保": 353,
      "▁in": 354,
      "▁三": 355,
      "as": 356,
      "▁なかっ": 357,
      "▁成": 358,
      "▁よる": 359,
      "▁活": 360,
      "▁次": 361,
      "ーク": 362,
      "▁女": 363,
      "▁プロ": 364,
      "▁北": 365,
      "▁参": 366,
      "▁大学": 367,
      "れる": 368,
      "▁番": 369,
      "▁外": 370,
      "▁安": 371,
      "▁山": 372,
      "▁物": 373,
      "▁指": 374,
      "▁法": 375,
      "▁楽": 376,
      "▁利": 377,
      "▁店": 378,
      "▁位": 379,
      "▁決": 380,
      "▁/": 381,
      "▁j": 382,
      "▁形": 383,
      "▁たら": 384,
      "▁彼": 385,
      "▁二": 386,
      "▁基": 387,
      "▁受け": 388,
      "▁放": 389,
      "▁キャ": 390,
      "▁動": 391,
      "▁意": 392,
      "▁イン": 393,
      "▁良": 394,
      "▁たり": 395,
      "▁制": 396,
      "▁重": 397,
      "▁ソ": 398,
      "▁仕": 399,
      "▁引": 400,
      "▁e": 401,
      "▁an": 402,
      "▁付": 403,
      "▁有": 404,
      "▁いい": 405,
      "▁共": 406,
      "▁海": 407,
      "▁予": 408,
      "▁神": 409,
      "▁【": 410,
      "▁町": 411,
      "▁】": 412,
      "▁ワ": 413,
      "▁\"": 414,
      "▁万": 415,
      "le": 416,
      "ーン": 417,
      "▁近": 418,
      "▁立": 419,
      "▁明": 420,
      "する": 421,
      "▁i": 422,
      "▁話": 423,
      "▁って": 424,
      "ーズ": 425,
      "▁ガ": 426,
      "ing": 427,
      "ou": 428,
      "▁区": 429,
      "▁ニ": 430,
      "バー": 431,
      "▁可能": 432,
      "しく": 433,
      "▁,": 434,
      "▁支": 435,
      "om": 436,
      "▁期": 437,
      "ion": 438,
      "▁ファ": 439,
      "める": 440,
      "▁状": 441,
      "▁元": 442,
      "▁会社": 443,
      "▁使用": 444,
      "かり": 445,
      "▁続": 446,
      "っと": 447,
      "▁情": 448,
      "▁おい": 449,
      "▁of": 450,
      "▁交": 451,
      "▁学校": 452,
      "▁199": 453,
      "▁天": 454,
      "▁登": 455,
      "▁正": 456,
      "▁確": 457,
      "▁コン": 458,
      "▁政": 459,
      "▁建": 460,
      "ける": 461,
      "▁製": 462,
      "▁広": 463,
      "▁くだ": 464,
      "▁強": 465,
      "▁現在": 466,
      "▁度": 467,
      "▁世界": 468,
      "イル": 469,
      "▁必要": 470,
      "▁られる": 471,
      "▁線": 472,
      "▁大き": 473,
      "▁たち": 474,
      "▁15": 475,
      "▁解": 476,
      "▁向": 477,
      "▁再": 478,
      "リカ": 479,
      "▁ル": 480,
      "▁試": 481,
      "▁多く": 482,
      "▁考え": 483,
      "▁買": 484,
      "▁終": 485,
      "▁軍": 486,
      "▁u": 487,
      "▁理": 488,
      "レー": 489,
      "▁調": 490,
      "▁問": 491,
      "▁原": 492,
      "▁いた": 493,
      "▁等": 494,
      "▁改": 495,
      "▁語": 496,
      "▁商": 497,
      "▁美": 498,
      "▁どう": 499,
      "▁しかし": 500,
      "▁加": 501,
      "▁でしょう": 502,
      "がら": 503,
      "▁進": 504,
      "▁情報": 505,
      "▁来": 506,
      "am": 507,
      "▁南": 508,
      "▁いっ": 509,
      "▁ゲ": 510,
      "ライ": 511,
      "ころ": 512,
      "▁東京": 513,
      "▁移": 514,
      "▁ペ": 515,
      "▁v": 516,
      "して": 517,
      "▁~": 518,
      "st": 519,
      "▁呼": 520,
      "▁ネ": 521,
      "▁k": 522,
      "▁ケ": 523,
      "▁けど": 524,
      "▁ください": 525,
      "▁時代": 526,
      "ープ": 527,
      "▁工": 528,
      "▁ピ": 529,
      "▁空": 530,
      "▁ながら": 531,
      "▁音": 532,
      "▁利用": 533,
      "▁ひ": 534,
      "ラー": 535,
      "▁じ": 536,
      "ac": 537,
      "▁感じ": 538,
      "▁直": 539,
      "▁都": 540,
      "▁西": 541,
      "▁アル": 542,
      "▁ナ": 543,
      "▁行っ": 544,
      "et": 545,
      "▁取り": 546,
      "▁組": 547,
      "▁r": 548,
      "▁道": 549,
      "▁集": 550,
      "▁料": 551,
      "20": 552,
      "まり": 553,
      "▁ところ": 554,
      "▁始": 555,
      "▁to": 556,
      "▁なん": 557,
      "▁and": 558,
      "▁アメ": 559,
      "▁映": 560,
      "▁ユ": 561,
      "ンス": 562,
      "ろう": 563,
      "▁優": 564,
      "▁構": 565,
      "▁点": 566,
      "▁そして": 567,
      "▁過": 568,
      "▁研": 569,
      "▁個": 570,
      "▁勝": 571,
      "▁いく": 572,
      "▁同じ": 573,
      "▁系": 574,
      "▁心": 575,
      "▁16": 576,
      "▁業": 577,
      "▁各": 578,
      "▁とき": 579,
      "el": 580,
      "▁得": 581,
      "▁収": 582,
      "▁スタ": 583,
      "▁re": 584,
      "▁17": 585,
      "▁男": 586,
      "▁アメリカ": 587,
      "▁配": 588,
      "ent": 589,
      "000": 590,
      "▁タイ": 591,
      "▁提": 592,
      "▁定": 593,
      "il": 594,
      "▁放送": 595,
      "▁総": 596,
      "▁198": 597,
      "▁流": 598,
      "▁思っ": 599,
      "▁残": 600,
      "▁力": 601,
      "▁投": 602,
      "▁起": 603,
      "▁好": 604,
      "▁品": 605,
      "▁ちゃ": 606,
      "ッド": 607,
      "ol": 608,
      "▁ノ": 609,
      "▁住": 610,
      "▁以上": 611,
      "▁反": 612,
      "▁面": 613,
      "▁約": 614,
      "ンジ": 615,
      "▁周": 616,
      "▁作品": 617,
      "カー": 618,
      "▁増": 619,
      "らい": 620,
      "▁多い": 621,
      "▁号": 622,
      "▁ジャ": 623,
      "▁検": 624,
      "▁王": 625,
      "▁存": 626,
      "▁伝": 627,
      "▁含": 628,
      "▁30": 629,
      "▁役": 630,
      "▁|": 631,
      "▁とも": 632,
      "▁売": 633,
      "▁行わ": 634,
      "▁色": 635,
      "▁いただ": 636,
      "▁台": 637,
      "▁ヒ": 638,
      "▁読": 639,
      "▁研究": 640,
      "▁サー": 641,
      "ランド": 642,
      "リン": 643,
      "▁観": 644,
      "▁注": 645,
      "▁ゴ": 646,
      "▁乗": 647,
      "▁選手": 648,
      "▁クラ": 649,
      "▁画": 650,
      "▁13": 651,
      "▁リー": 652,
      "▁完": 653,
      "▁信": 654,
      "▁問題": 655,
      "▁歳": 656,
      "▁スト": 657,
      "ナー": 658,
      "▁違": 659,
      "▁活動": 660,
      "▁出来": 661,
      "▁ライ": 662,
      "▁着": 663,
      "▁14": 664,
      "▁比": 665,
      "▁種": 666,
      "▁チャ": 667,
      "▁さら": 668,
      "▁計": 669,
      "▁別": 670,
      "▁てる": 671,
      "▁両": 672,
      "ッチ": 673,
      "▁土": 674,
      "▁権": 675,
      "▁関係": 676,
      "ad": 677,
      "▁テレ": 678,
      "▁フィ": 679,
      "▁アイ": 680,
      "▁197": 681,
      "▁要": 682,
      "▁川": 683,
      "▁専": 684,
      "ステ": 685,
      "id": 686,
      "▁[": 687,
      "▁型": 688,
      "▁ここ": 689,
      "わせ": 690,
      "リス": 691,
      "▁野": 692,
      "ちら": 693,
      "▁異": 694,
      "▁ヴ": 695,
      "▁やっ": 696,
      "▁限": 697,
      "▁施": 698,
      "▁朝": 699,
      "▁ほど": 700,
      "ーマ": 701,
      "▁存在": 702,
      "▁際": 703,
      "▁口": 704,
      "▁風": 705,
      "▁単": 706,
      "▁良い": 707,
      "▁例": 708,
      "よう": 709,
      "▁およ": 710,
      "▁企": 711,
      "▁条": 712,
      "▁規": 713,
      "▁鉄": 714,
      "▁ヘ": 715,
      "▁昭": 716,
      "▁映画": 717,
      "▁対し": 718,
      "▁半": 719,
      "ot": 720,
      "シュ": 721,
      "▁愛": 722,
      "ックス": 723,
      "▁フォ": 724,
      "ルト": 725,
      "▁民": 726,
      "▁郡": 727,
      "▁効": 728,
      "▁死": 729,
      "▁st": 730,
      "▁管": 731,
      "▁議": 732,
      "ダー": 733,
      "▁以下": 734,
      "▁石": 735,
      "▁州": 736,
      "▁さらに": 737,
      "▁参加": 738,
      "▁サイ": 739,
      "▁古": 740,
      "▁曲": 741,
      "▁食べ": 742,
      "▁編": 743,
      "▁テレビ": 744,
      "▁聞": 745,
      "▁追": 746,
      "▁ツ": 747,
      "▁概": 748,
      "▁歌": 749,
      "▁打": 750,
      "▁y": 751,
      "▁価": 752,
      "▁昭和": 753,
      "▁る": 754,
      "▁歴": 755,
      "▁=": 756,
      "▁方法": 757,
      "▁式": 758,
      "▁しまう": 759,
      "わり": 760,
      "▁資": 761,
      "▁仕事": 762,
      "▁商品": 763,
      "▁ただ": 764,
      "▁地域": 765,
      "▁ギ": 766,
      "▁医": 767,
      "▁女性": 768,
      "▁館": 769,
      "ンク": 770,
      "▁のみ": 771,
      "▁そこ": 772,
      "▁素": 773,
      "ブル": 774,
      "ータ": 775,
      "▁写": 776,
      "▁毎": 777,
      "▁真": 778,
      "▁プレ": 779,
      "▁非": 780,
      "ig": 781,
      "▁評": 782,
      "▁オー": 783,
      "▁切": 784,
      "▁および": 785,
      "▁くれ": 786,
      "▁福": 787,
      "▁図": 788,
      "▁よく": 789,
      "▁じゃ": 790,
      "▁技": 791,
      "▁結果": 792,
      "▁認": 793,
      "ロー": 794,
      "▁早": 795,
      "▁科": 796,
      "▁もう": 797,
      "ay": 798,
      "わっ": 799,
      "▁送": 800,
      "▁演": 801,
      "ch": 802,
      "▁#": 803,
      "▁協": 804,
      "▁ディ": 805,
      "▁客": 806,
      "▁英": 807,
      "▁病": 808,
      "▁196": 809,
      "▁笑": 810,
      "▁説": 811,
      "ーツ": 812,
      "フォ": 813,
      "▁当時": 814,
      "▁白": 815,
      "ランス": 816,
      "まっ": 817,
      "▁せる": 818,
      "ウン": 819,
      "▁悪": 820,
      "ow": 821,
      "▁達": 822,
      "ct": 823,
      "▁開発": 824,
      "上げ": 825,
      "▁太": 826,
      "めて": 827,
      "▁シャ": 828,
      "▁ゲーム": 829,
      "レス": 830,
      "▁側": 831,
      "ビス": 832,
      "ur": 833,
      "im": 834,
      "▁ふ": 835,
      "iv": 836,
      "▁村": 837,
      "クト": 838,
      "▁代表": 839,
      "▁知ら": 840,
      "ag": 841,
      "▁おけ": 842,
      "▁ショ": 843,
      "フト": 844,
      "▁th": 845,
      "▁そんな": 846,
      "▁状態": 847,
      "▁やす": 848,
      "▁株": 849,
      "▁25": 850,
      "▁装": 851,
      "▁かけ": 852,
      "▁場所": 853,
      "▁消": 854,
      "▁番組": 855,
      "▁落": 856,
      "▁低": 857,
      "▁うち": 858,
      "なり": 859,
      "▁だろう": 860,
      "ーション": 861,
      "ter": 862,
      "▁〜": 863,
      "▁和": 864,
      "▁防": 865,
      "▁高い": 866,
      "us": 867,
      "▁引き": 868,
      "▁独": 869,
      "▁こう": 870,
      "▁一般": 871,
      "▁ちゃん": 872,
      "▁及": 873,
      "▁バス": 874,
      "▁21": 875,
      "▁親": 876,
      "▁コー": 877,
      "▁写真": 878,
      "▁チーム": 879,
      "シャ": 880,
      "ンプ": 881,
      "▁思う": 882,
      "▁競": 883,
      "けれ": 884,
      "▁サービス": 885,
      "▁呼ば": 886,
      "▁派": 887,
      "▁楽し": 888,
      "ニア": 889,
      "▁サイト": 890,
      "▁販": 891,
      "▁花": 892,
      "▁紹": 893,
      "▁ステ": 894,
      "▁発表": 895,
      "▁氏": 896,
      "▁監": 897,
      "▁帰": 898,
      "▁木": 899,
      "▁開催": 900,
      "▁対応": 901,
      "▁部分": 902,
      "▁]": 903,
      "▁影": 904,
      "▁紹介": 905,
      "▁まま": 906,
      "un": 907,
      "たり": 908,
      "▁光": 909,
      "▁版": 910,
      "▁島": 911,
      "▁少し": 912,
      "▁購": 913,
      "▁言っ": 914,
      "▁販売": 915,
      "▁転": 916,
      "▁事業": 917,
      "ut": 918,
      "▁身": 919,
      "▁ゆ": 920,
      "▁発売": 921,
      "▁持っ": 922,
      "▁ー": 923,
      "▁中心": 924,
      "▁担": 925,
      "▁人気": 926,
      "▁社会": 927,
      "▁なお": 928,
      "▁求": 929,
      "▁194": 930,
      "▁生活": 931,
      "▁横": 932,
      "▁普": 933,
      "▁for": 934,
      "▁院": 935,
      "▁特に": 936,
      "▁旅": 937,
      "▁ブラ": 938,
      "-1": 939,
      "▁修": 940,
      "▁飛": 941,
      "▁赤": 942,
      "▁通り": 943,
      "▁意味": 944,
      "▁報": 945,
      "▁にて": 946,
      "▁こちら": 947,
      "▁未": 948,
      "▁購入": 949,
      "▁判": 950,
      "▁確認": 951,
      "▁たく": 952,
      "ul": 953,
      "▁満": 954,
      "▁党": 955,
      "▁従": 956,
      "▁24": 957,
      "▁セン": 958,
      "▁武": 959,
      "▁平成": 960,
      "▁応": 961,
      "▁局": 962,
      "▁開始": 963,
      "▁べ": 964,
      "▁委": 965,
      "▁メン": 966,
      "▁概要": 967,
      "▁展": 968,
      "▁&": 969,
      "▁com": 970,
      "▁屋": 971,
      "▁接": 972,
      "▁いつ": 973,
      "▁処": 974,
      "▁100": 975,
      "▁内容": 976,
      "▁四": 977,
      "▁とっ": 978,
      "ation": 979,
      "ir": 980,
      "▁ラン": 981,
      "▁一部": 982,
      "oo": 983,
      "▁入っ": 984,
      "▁整": 985,
      "▁行う": 986,
      "フィ": 987,
      "ラス": 988,
      "▁ブロ": 989,
      "▁京": 990,
      "▁母": 991,
      "メント": 992,
      "▁今日": 993,
      "▁言わ": 994,
      "▁試合": 995,
      "▁失": 996,
      "パー": 997,
      "▁位置": 998,
      "ベル": 999,
      "▁入り": 1000,
      "▁使っ": 1001,
      "▁ドラ": 1002,
      "▁少な": 1003,
      "▁あれ": 1004,
      "▁マン": 1005,
      "▁※": 1006,
      "▁22": 1007,
      "なた": 1008,
      "▁置": 1009,
      "▁影響": 1010,
      "ざい": 1011,
      "▁十": 1012,
      "▁しまっ": 1013,
      "シア": 1014,
      "▁今回": 1015,
      "リーズ": 1016,
      "▁195": 1017,
      "▁”": 1018,
      "▁以降": 1019,
      "ても": 1020,
      "イク": 1021,
      "▁大阪": 1022,
      "▁くる": 1023,
      "▁もら": 1024,
      "▁青": 1025,
      "▁チェ": 1026,
      "▁申": 1027,
      "▁登場": 1028,
      "▁中国": 1029,
      "os": 1030,
      "▁効果": 1031,
      "▁賞": 1032,
      "▁足": 1033,
      "んど": 1034,
      "▁出身": 1035,
      "ナル": 1036,
      "▁歴史": 1037,
      "▁最初": 1038,
      "▁程": 1039,
      "▁ござい": 1040,
      "▁環": 1041,
      "▁団": 1042,
      "▁生ま": 1043,
      "▁>": 1044,
      "たい": 1045,
      "ンタ": 1046,
      "▁23": 1047,
      "▁しれ": 1048,
      "▁音楽": 1049,
      "▁用い": 1050,
      "th": 1051,
      "▁採": 1052,
      "▁探": 1053,
      "▁あなた": 1054,
      "▁職": 1055,
      "▁on": 1056,
      "ap": 1057,
      "ビュー": 1058,
      "em": 1059,
      "スタ": 1060,
      "▁大会": 1061,
      "▁率": 1062,
      "▁細": 1063,
      "▁デザ": 1064,
      "▁変更": 1065,
      "▁千": 1066,
      "▁グル": 1067,
      "▁就": 1068,
      "ネル": 1069,
      "▁言う": 1070,
      "▁深": 1071,
      "▁好き": 1072,
      "▁声": 1073,
      "▁階": 1074,
      "▁記録": 1075,
      "▁官": 1076,
      "▁ヨ": 1077,
      "▁頭": 1078,
      "▁示": 1079,
      "▁入れ": 1080,
      "▁量": 1081,
      "▁ちょ": 1082,
      "▁ましょう": 1083,
      "▁価格": 1084,
      "▁与": 1085,
      "▁企業": 1086,
      "▁費": 1087,
      "イス": 1088,
      "▁適": 1089,
      "▁左": 1090,
      "▁若": 1091,
      "▁詳": 1092,
      "▁わけ": 1093,
      "▁割": 1094,
      "▁超": 1095,
      "ニー": 1096,
      "▁ヤ": 1097,
      "がっ": 1098,
      "▁機能": 1099,
      "▁在": 1100,
      "▁創": 1101,
      "▁is": 1102,
      "ステム": 1103,
      "▁アン": 1104,
      "テル": 1105,
      "▁撮": 1106,
      "▁自身": 1107,
      "▁スポ": 1108,
      "▁無料": 1109,
      "▁*": 1110,
      "▁年代": 1111,
      "▁以外": 1112,
      "▁銀": 1113,
      "▁松": 1114,
      "▁父": 1115,
      "▁くらい": 1116,
      "▁管理": 1117,
      "イツ": 1118,
      "▁攻": 1119,
      "サー": 1120,
      "▁シリーズ": 1121,
      "▁しまい": 1122,
      "▁実際": 1123,
      "▁同年": 1124,
      "▁最後": 1125,
      "▁大きな": 1126,
      "▁見る": 1127,
      "▁料理": 1128,
      "▁務": 1129,
      "▁財": 1130,
      "イント": 1131,
      "▁歩": 1132,
      "▁艦": 1133,
      "出し": 1134,
      "▁システム": 1135,
      "▁飲": 1136,
      "▁アク": 1137,
      "▁フェ": 1138,
      "▁産": 1139,
      "▁及び": 1140,
      "デル": 1141,
      "▁負": 1142,
      "▁推": 1143,
      "▁まだ": 1144,
      "▁スペ": 1145,
      "▁始め": 1146,
      "▁友": 1147,
      "▁技術": 1148,
      "▁復": 1149,
      "かる": 1150,
      "▁ぶ": 1151,
      "▁自動": 1152,
      "▁願": 1153,
      "▁寺": 1154,
      "リング": 1155,
      "▁ダイ": 1156,
      "▁表示": 1157,
      "▁契": 1158,
      "▁複": 1159,
      "▁鉄道": 1160,
      "▁休": 1161,
      "▁路": 1162,
      "10": 1163,
      "▁宮": 1164,
      "▁卒": 1165,
      "▁教育": 1166,
      "オン": 1167,
      "▁なけれ": 1168,
      "▁アルバ": 1169,
      "▁旧": 1170,
      "▁省": 1171,
      "▁枚": 1172,
      "▁週": 1173,
      "um": 1174,
      "▁子供": 1175,
      "▁師": 1176,
      "▁値": 1177,
      "▁黒": 1178,
      "▁向け": 1179,
      "▁温": 1180,
      "▁味": 1181,
      "なる": 1182,
      "ロン": 1183,
      "▁出場": 1184,
      "ぞれ": 1185,
      "▁本当": 1186,
      "▁カード": 1187,
      "▁とても": 1188,
      "▁それぞれ": 1189,
      "▁短": 1190,
      "▁統": 1191,
      "込み": 1192,
      "ザー": 1193,
      "ーズン": 1194,
      "ケット": 1195,
      "▁2018": 1196,
      "ッシュ": 1197,
      "▁米": 1198,
      "▁国際": 1199,
      "▁任": 1200,
      "▁振": 1201,
      "▁すぐ": 1202,
      "▁2017": 1203,
      "▁難": 1204,
      "▁返": 1205,
      "▁治": 1206,
      "▁城": 1207,
      "▁委員": 1208,
      "▁いき": 1209,
      "▁描": 1210,
      "ファ": 1211,
      "▁常": 1212,
      "▁ほか": 1213,
      "▁ひと": 1214,
      "▁シーズン": 1215,
      "▁持つ": 1216,
      "▁薬": 1217,
      "▁離": 1218,
      "▁かつ": 1219,
      "コン": 1220,
      "▁提供": 1221,
      "▁持ち": 1222,
      "▁評価": 1223,
      "ウス": 1224,
      "▁契約": 1225,
      "▁船": 1226,
      "▁更": 1227,
      ",000": 1228,
      "▁監督": 1229,
      "▁質": 1230,
      "▁兵": 1231,
      "▁人間": 1232,
      "▁ウェ": 1233,
      "▁データ": 1234,
      "▁頂": 1235,
      "▁急": 1236,
      "▁ポイント": 1237,
      "▁豊": 1238,
      "▁al": 1239,
      "▁担当": 1240,
      "▁走": 1241,
      "▁フランス": 1242,
      "▁出演": 1243,
      "▁五": 1244,
      "▁首": 1245,
      "▁初めて": 1246,
      "▁ネット": 1247,
      "▁2019": 1248,
      "▁差": 1249,
      "▁ウィ": 1250,
      "から": 1251,
      "▁環境": 1252,
      "▁2016": 1253,
      "▁計画": 1254,
      "クター": 1255,
      "▁結婚": 1256,
      "▁設置": 1257,
      "プリ": 1258,
      "▁設定": 1259,
      "30": 1260,
      "▁株式": 1261,
      "▁関する": 1262,
      "付け": 1263,
      "がり": 1264,
      "▁一方": 1265,
      "ャー": 1266,
      "▁状況": 1267,
      "▁夜": 1268,
      "▁減": 1269,
      "▁文化": 1270,
      "▁施設": 1271,
      "▁室": 1272,
      "ers": 1273,
      "▁言葉": 1274,
      "ak": 1275,
      "スク": 1276,
      "▁補": 1277,
      "▁ちょっと": 1278,
      "▁実施": 1279,
      "▁記事": 1280,
      "持ち": 1281,
      "▁ドイツ": 1282,
      "▁翌": 1283,
      "▁調査": 1284,
      "▁リーグ": 1285,
      "▁簡": 1286,
      "▁個人": 1287,
      "▁員": 1288,
      "▁26": 1289,
      "▁×": 1290,
      "▁説明": 1291,
      "▁50": 1292,
      "▁生まれ": 1293,
      "▁理由": 1294,
      "▁x": 1295,
      "▁すべ": 1296,
      "▁28": 1297,
      "▁年間": 1298,
      "▁デザイン": 1299,
      "▁明治": 1300,
      "cm": 1301,
      "▁準": 1302,
      "ラム": 1303,
      "ソン": 1304,
      "▁発生": 1305,
      "▁所属": 1306,
      "▁まず": 1307,
      "▁八": 1308,
      "▁使い": 1309,
      "▁重要": 1310,
      "▁右": 1311,
      "tt": 1312,
      "▁士": 1313,
      "ッグ": 1314,
      "▁ch": 1315,
      "▁警": 1316,
      "▁果": 1317,
      "▁特徴": 1318,
      "▁相手": 1319,
      "▁カー": 1320,
      "▁街": 1321,
      "ニング": 1322,
      "とう": 1323,
      "▁夏": 1324,
      "▁馬": 1325,
      "▁地方": 1326,
      "▁中央": 1327,
      "▁経済": 1328,
      "▁経験": 1329,
      "▁待": 1330,
      "▁命": 1331,
      "▁期間": 1332,
      "くり": 1333,
      "▁卒業": 1334,
      "▁基本": 1335,
      "▁名前": 1336,
      "▁人物": 1337,
      "▁2015": 1338,
      "ce": 1339,
      "▁都市": 1340,
      "▁農": 1341,
      "▁“": 1342,
      "▁27": 1343,
      "▁頃": 1344,
      "▁被": 1345,
      "21": 1346,
      "▁え": 1347,
      "▁印": 1348,
      "▁すべて": 1349,
      "▁守": 1350,
      "50": 1351,
      "▁べき": 1352,
      "▁q": 1353,
      "▁精": 1354,
      "▁as": 1355,
      "▁程度": 1356,
      "▁視": 1357,
      "▁航": 1358,
      "▁講": 1359,
      "▁サン": 1360,
      "▁ほと": 1361,
      "フェ": 1362,
      "▁全て": 1363,
      "▁願い": 1364,
      "▁ム": 1365,
      "op": 1366,
      "▁ジェ": 1367,
      "▁スター": 1368,
      "▁遺": 1369,
      "▁be": 1370,
      "▁導": 1371,
      "▁目的": 1372,
      "ールド": 1373,
      "▁脱": 1374,
      "ーター": 1375,
      "ウェ": 1376,
      "▁^": 1377,
      "▁構成": 1378,
      "キー": 1379,
      "▁御": 1380,
      "▁予定": 1381,
      "マン": 1382,
      "▁退": 1383,
      "▁営": 1384,
      "▁絶": 1385,
      "▁続け": 1386,
      "かけ": 1387,
      "▁専門": 1388,
      "▁ホーム": 1389,
      "▁ほとんど": 1390,
      "▁戻": 1391,
      "▁火": 1392,
      "▁渡": 1393,
      "▁級": 1394,
      "▁サイズ": 1395,
      "わる": 1396,
      "▁グループ": 1397,
      "▁破": 1398,
      "ew": 1399,
      "oc": 1400,
      "▁2014": 1401,
      "▁江": 1402,
      "▁隊": 1403,
      "▁クリ": 1404,
      "ly": 1405,
      "▁アップ": 1406,
      "▁2010": 1407,
      "▁軽": 1408,
      "らか": 1409,
      "キング": 1410,
      "たし": 1411,
      "▁税": 1412,
      "▁領": 1413,
      "▁トラ": 1414,
      "▁突": 1415,
      "▁掲": 1416,
      "▁便": 1417,
      "▁田": 1418,
      "▁すす": 1419,
      "▁論": 1420,
      "っかり": 1421,
      "ab": 1422,
      "and": 1423,
      "合わせ": 1424,
      "▁香": 1425,
      "if": 1426,
      "▁センター": 1427,
      "▁背": 1428,
      "▁ライン": 1429,
      "▁苦": 1430,
      "▁こんな": 1431,
      "▁終了": 1432,
      "▁廃": 1433,
      "▁モデル": 1434,
      "▁彼女": 1435,
      "▁冷": 1436,
      "▁症": 1437,
      "se": 1438,
      "▁機関": 1439,
      "▁列": 1440,
      "▁+": 1441,
      "▁やすい": 1442,
      "▁優勝": 1443,
      "▁de": 1444,
      "▁姿": 1445,
      "▁登録": 1446,
      "▁29": 1447,
      "▁ニュー": 1448,
      "▁育": 1449,
      "▁あまり": 1450,
      "▁伊": 1451,
      "▁皆": 1452,
      "▁義": 1453,
      "イド": 1454,
      "▁公開": 1455,
      "▁時期": 1456,
      "▁2020": 1457,
      "▁め": 1458,
      "▁ホテル": 1459,
      "▁清": 1460,
      "av": 1461,
      "▁なか": 1462,
      "▁一人": 1463,
      "▁課": 1464,
      "▁大きく": 1465,
      "▁イギ": 1466,
      "ピー": 1467,
      "▁比較": 1468,
      "▁全国": 1469,
      "▁193": 1470,
      "▁he": 1471,
      "▁起こ": 1472,
      "▁ユー": 1473,
      "▁イギリス": 1474,
      "げる": 1475,
      "xx": 1476,
      "▁博": 1477,
      "えば": 1478,
      "▁キャラ": 1479,
      "▁務め": 1480,
      "レン": 1481,
      "▁40": 1482,
      "▁電話": 1483,
      "テン": 1484,
      "▁獲": 1485,
      "▁健": 1486,
      "▁政府": 1487,
      "▁2013": 1488,
      "▁2012": 1489,
      "▁証": 1490,
      "▁丁": 1491,
      "▁熱": 1492,
      "▁新しい": 1493,
      "▁世紀": 1494,
      "▁最大": 1495,
      "▁by": 1496,
      "▁アニ": 1497,
      "▁高校": 1498,
      "▁相談": 1499,
      "▁アルバム": 1500,
      "▁2011": 1501,
      "▁スー": 1502,
      "▁最も": 1503,
      "▁府": 1504,
      "▁顔": 1505,
      "▁ジョ": 1506,
      "▁すすめ": 1507,
      "ッカー": 1508,
      "▁様々": 1509,
      "▁秋": 1510,
      "▁決定": 1511,
      "▁31": 1512,
      "▁同様": 1513,
      "アル": 1514,
      "▁くれる": 1515,
      "▁僕": 1516,
      "▁誰": 1517,
      "▁件": 1518,
      "▁♪": 1519,
      "▁座": 1520,
      "らし": 1521,
      "▁積": 1522,
      "▁出し": 1523,
      "▁しよう": 1524,
      "▁it": 1525,
      "▁行く": 1526,
      "ジア": 1527,
      "▁気持ち": 1528,
      "▁焼": 1529,
      "▁非常": 1530,
      "▁ブル": 1531,
      "▁並": 1532,
      "▁洗": 1533,
      "▁著": 1534,
      "▁対する": 1535,
      "ip": 1536,
      "▁助": 1537,
      "▁遊": 1538,
      "ジオ": 1539,
      "入れ": 1540,
      "▁戦争": 1541,
      "ジェ": 1542,
      "▁敗": 1543,
      "▁最高": 1544,
      "▁使わ": 1545,
      "▁かなり": 1546,
      "▁順": 1547,
      "▁最終": 1548,
      "▁いただき": 1549,
      "▁遠": 1550,
      "▁種類": 1551,
      "▁付き": 1552,
      "▁自然": 1553,
      "▁男性": 1554,
      "▁段": 1555,
      "▁関連": 1556,
      "▁すぎ": 1557,
      "▁イベ": 1558,
      "▁もっと": 1559,
      "ティー": 1560,
      "▁ヶ": 1561,
      "▁宇": 1562,
      "▁佐": 1563,
      "▁★": 1564,
      "▁一緒": 1565,
      "▁芸": 1566,
      "▁事件": 1567,
      "▁pro": 1568,
      "シー": 1569,
      "▁家族": 1570,
      "▁抜": 1571,
      "▁2009": 1572,
      "▁降": 1573,
      "▁働": 1574,
      "▁植": 1575,
      "eb": 1576,
      "▁対象": 1577,
      "わら": 1578,
      "ビー": 1579,
      "▁器": 1580,
      "▁採用": 1581,
      "▁獲得": 1582,
      "▁興": 1583,
      "ub": 1584,
      "▁自由": 1585,
      "▁継": 1586,
      "▁パン": 1587,
      "▁以前": 1588,
      "▁司": 1589,
      "▁買い": 1590,
      "▁拡": 1591,
      "▁se": 1592,
      "ov": 1593,
      "▁富": 1594,
      "▁もち": 1595,
      "▁巻": 1596,
      "▁訪": 1597,
      "▁ソフト": 1598,
      "▁行き": 1599,
      "▁案": 1600,
      "▁2008": 1601,
      "▁メンバー": 1602,
      "まる": 1603,
      "▁陸": 1604,
      "ーカー": 1605,
      "▁選択": 1606,
      "▁イベント": 1607,
      "▁ありが": 1608,
      "▁諸": 1609,
      "▁すれ": 1610,
      "▁簡単": 1611,
      "▁年度": 1612,
      "▁ザ": 1613,
      "▁塗": 1614,
      "▁買取": 1615,
      "▁at": 1616,
      "▁建設": 1617,
      "▁通常": 1618,
      "▁除": 1619,
      "ディア": 1620,
      "▁はじ": 1621,
      "▁ページ": 1622,
      "▁am": 1623,
      "▁混": 1624,
      "ia": 1625,
      "▁選挙": 1626,
      "▁見つ": 1627,
      "▁京都": 1628,
      "ith": 1629,
      "▁洋": 1630,
      "▁どの": 1631,
      "▁アー": 1632,
      "ングル": 1633,
      "▁was": 1634,
      "せる": 1635,
      "▁つけ": 1636,
      "▁園": 1637,
      "▁停": 1638,
      "▁余": 1639,
      "od": 1640,
      "▁どこ": 1641,
      "▁政治": 1642,
      "▁類": 1643,
      "▁攻撃": 1644,
      "▁ブログ": 1645,
      "▁能": 1646,
      "▁構造": 1647,
      "込ん": 1648,
      "▁寄": 1649,
      "ist": 1650,
      "▁血": 1651,
      "▁クロ": 1652,
      "▁みたい": 1653,
      "▁作業": 1654,
      "▁成功": 1655,
      "▁言い": 1656,
      "▁全体": 1657,
      "▁事務": 1658,
      "▁―": 1659,
      "▁合わせ": 1660,
      "▁製造": 1661,
      "▁群": 1662,
      "▁運動": 1663,
      "メージ": 1664,
      "▁タイプ": 1665,
      "▁2007": 1666,
      "▁撮影": 1667,
      "▁コミ": 1668,
      "▁詳細": 1669,
      "▁インター": 1670,
      "さん": 1671,
      "▁☆": 1672,
      "▁制作": 1673,
      "▁近く": 1674,
      "▁固": 1675,
      "▁さま": 1676,
      "▁→": 1677,
      "▁あと": 1678,
      "▁聖": 1679,
      "est": 1680,
      "▁輸": 1681,
      "▁部屋": 1682,
      "▁春": 1683,
      "▁速": 1684,
      "▁英語": 1685,
      "▁将": 1686,
      "og": 1687,
      "▁作り": 1688,
      "▁エンジ": 1689,
      "▁営業": 1690,
      "▁生産": 1691,
      "▁逆": 1692,
      "▁伴": 1693,
      "▁与え": 1694,
      "▁ハイ": 1695,
      "こう": 1696,
      "▁マイ": 1697,
      "カル": 1698,
      "12": 1699,
      "▁アニメ": 1700,
      "スター": 1701,
      "▁注意": 1702,
      "▁まと": 1703,
      "▁居": 1704,
      "▁仲": 1705,
      "▁設立": 1706,
      "▁史": 1707,
      "ヴィ": 1708,
      "▁con": 1709,
      "▁挙": 1710,
      "▁借": 1711,
      "なっ": 1712,
      "ポート": 1713,
      "▁夫": 1714,
      "▁項": 1715,
      "▁吉": 1716,
      "▁指定": 1717,
      "▁最近": 1718,
      "▁パー": 1719,
      "越し": 1720,
      "▁舞": 1721,
      "▁星": 1722,
      "▁ロー": 1723,
      "▁劇": 1724,
      "▁交通": 1725,
      "▁特別": 1726,
      "▁岩": 1727,
      "▁主義": 1728,
      "▁為": 1729,
      "▁帝": 1730,
      "▁標": 1731,
      "▁文字": 1732,
      "▁移動": 1733,
      "▁届": 1734,
      "▁一番": 1735,
      "||": 1736,
      "ワー": 1737,
      "▁当初": 1738,
      "▁ただし": 1739,
      "▁酸": 1740,
      "▁変化": 1741,
      "ろん": 1742,
      "タン": 1743,
      "▁属": 1744,
      "▁雑": 1745,
      "▁wh": 1746,
      "▁同時": 1747,
      "▁書い": 1748,
      "▁絵": 1749,
      "▁なんて": 1750,
      "▁容": 1751,
      "▁依": 1752,
      "▁生き": 1753,
      "がる": 1754,
      "▁いわ": 1755,
      "\":": 1756,
      "▁tr": 1757,
      "▁労": 1758,
      "▁セット": 1759,
      "▁先生": 1760,
      "▁弁": 1761,
      "▁支援": 1762,
      "▁落ち": 1763,
      "アー": 1764,
      "▁完全": 1765,
      "▁幸": 1766,
      "▁条件": 1767,
      "▁オリ": 1768,
      "▁普通": 1769,
      "ate": 1770,
      "ギー": 1771,
      "▁sh": 1772,
      "igh": 1773,
      "デン": 1774,
      "ヴァ": 1775,
      "▁格": 1776,
      "▁しっかり": 1777,
      "km": 1778,
      "▁1.": 1779,
      "▁小さ": 1780,
      "▁地区": 1781,
      "▁付け": 1782,
      "▁昨": 1783,
      "▁もちろん": 1784,
      "▁使う": 1785,
      "▁橋": 1786,
      "▁バー": 1787,
      "▁祭": 1788,
      "\")": 1789,
      "▁組織": 1790,
      "▁もと": 1791,
      "▁酒": 1792,
      "▁押": 1793,
      "▁久": 1794,
      "海道": 1795,
      "▁ケース": 1796,
      "▁教授": 1797,
      "▁2006": 1798,
      "▁病院": 1799,
      "▁作っ": 1800,
      "▁航空": 1801,
      "▁由": 1802,
      "▁00": 1803,
      "▁加え": 1804,
      "▁路線": 1805,
      "▁希": 1806,
      "▁思わ": 1807,
      "▁違い": 1808,
      "▁いろ": 1809,
      "▁デビュー": 1810,
      "▁たくさん": 1811,
      "mm": 1812,
      "▁sp": 1813,
      "ttp": 1814,
      "ネス": 1815,
      "▁副": 1816,
      "▁校": 1817,
      "▁強い": 1818,
      "タル": 1819,
      "▁車両": 1820,
      "▁宗": 1821,
      "▁料金": 1822,
      "19": 1823,
      "▁クラブ": 1824,
      "▁周辺": 1825,
      "▁you": 1826,
      "▁聞い": 1827,
      "//": 1828,
      "▁un": 1829,
      "▁断": 1830,
      "▁店舗": 1831,
      "▁含む": 1832,
      "▁申し": 1833,
      "▁公式": 1834,
      "▁ユニ": 1835,
      "▁ro": 1836,
      "ine": 1837,
      "one": 1838,
      "▁延": 1839,
      "▁シングル": 1840,
      "▁活躍": 1841,
      "▁みる": 1842,
      "▁ファン": 1843,
      "▁査": 1844,
      "▁アド": 1845,
      "▁スーパー": 1846,
      "▁記念": 1847,
      "コミ": 1848,
      "▁2000": 1849,
      "▁ほう": 1850,
      "▁ぐ": 1851,
      "▁ありがとう": 1852,
      "▁立ち": 1853,
      "▁with": 1854,
      "▁具": 1855,
      "/0": 1856,
      "チャ": 1857,
      "▁いけ": 1858,
      "▁距": 1859,
      "▁やり": 1860,
      "▁丸": 1861,
      "▁tw": 1862,
      "▁メール": 1863,
      "▁激": 1864,
      "ュース": 1865,
      "合い": 1866,
      "▁途": 1867,
      "ども": 1868,
      "▁ウォ": 1869,
      "▁工事": 1870,
      "▁危": 1871,
      "▁審": 1872,
      "▁下さい": 1873,
      "▁192": 1874,
      "▁人口": 1875,
      "▁距離": 1876,
      "11": 1877,
      "art": 1878,
      "▁イタ": 1879,
      "▁例えば": 1880,
      "▁見え": 1881,
      "▁装置": 1882,
      "▁スマ": 1883,
      "▁遅": 1884,
      "▁報告": 1885,
      "▁沿": 1886,
      "▁弾": 1887,
      "▁経営": 1888,
      "▁ブランド": 1889,
      "▁話し": 1890,
      "▁九": 1891,
      "▁収録": 1892,
      "▁至": 1893,
      "▁画像": 1894,
      "▁殺": 1895,
      "▁限定": 1896,
      "レイ": 1897,
      "▁末": 1898,
      "▁ドラマ": 1899,
      "▁プラ": 1900,
      "▁我": 1901,
      "▁静": 1902,
      "▁スポーツ": 1903,
      "▁行い": 1904,
      "▁スク": 1905,
      "▁漫": 1906,
      "▁運営": 1907,
      "://": 1908,
      "▁かつて": 1909,
      "80": 1910,
      "ロッ": 1911,
      "ッション": 1912,
      "▁徒": 1913,
      "▁査定": 1914,
      "ちゃ": 1915,
      "▁息": 1916,
      "▁展開": 1917,
      "▁女子": 1918,
      "▁娘": 1919,
      "▁道路": 1920,
      "▁方向": 1921,
      "らく": 1922,
      "▁行動": 1923,
      "ンダ": 1924,
      "▁発見": 1925,
      "ティング": 1926,
      "-0": 1927,
      "▁ヴィ": 1928,
      "▁極": 1929,
      "ートル": 1930,
      "▁乗り": 1931,
      "ore": 1932,
      "▁仮": 1933,
      "▁盛": 1934,
      "▁いか": 1935,
      "▁異なる": 1936,
      "▁公園": 1937,
      "▁高等": 1938,
      "▁原因": 1939,
      "▁●": 1940,
      "▁裏": 1941,
      "▁ライブ": 1942,
      "▁歯": 1943,
      "▁無い": 1944,
      "▁はず": 1945,
      "▁キャン": 1946,
      "▁シュ": 1947,
      "▁韓": 1948,
      "▁決め": 1949,
      "ッセ": 1950,
      "▁トップ": 1951,
      "▁市場": 1952,
      "ik": 1953,
      "▁森": 1954,
      "▁議員": 1955,
      "▁流れ": 1956,
      "\",": 1957,
      "▁設計": 1958,
      "▁教え": 1959,
      "リスト": 1960,
      "▁俺": 1961,
      "▁マル": 1962,
      "▁含ま": 1963,
      "▁占": 1964,
      ":00": 1965,
      "やか": 1966,
      "ッフ": 1967,
      "▁野球": 1968,
      "ッツ": 1969,
      "▁貴": 1970,
      "▁銀行": 1971,
      "▁ハン": 1972,
      "▁恋": 1973,
      "▁なし": 1974,
      "▁指導": 1975,
      "▁兄": 1976,
      "▁複数": 1977,
      "▁材": 1978,
      "▁処理": 1979,
      "ルフ": 1980,
      "ain": 1981,
      "▁毎日": 1982,
      "▁む": 1983,
      "▁り": 1984,
      "▁イタリア": 1985,
      "▁ex": 1986,
      "▁新た": 1987,
      "▁根": 1988,
      "ピック": 1989,
      "▁肌": 1990,
      "▁美味": 1991,
      "ウト": 1992,
      "▁高く": 1993,
      "▁運転": 1994,
      "▁寝": 1995,
      "替え": 1996,
      "ive": 1997,
      "▁ヶ月": 1998,
      "▁就任": 1999,
      "モン": 2000,
      "▁困": 2001,
      "フォーム": 2002,
      "セス": 2003,
      "▁ベル": 2004,
      "▁掲載": 2005,
      "▁北海道": 2006,
      "▁河": 2007,
      "▁or": 2008,
      "▁費用": 2009,
      "▁宿": 2010,
      "res": 2011,
      "▁ぶり": 2012,
      "▁イメージ": 2013,
      "ph": 2014,
      "▁藩": 2015,
      "▁迎": 2016,
      "▁雨": 2017,
      "▁幅": 2018,
      "▁z": 2019,
      "▁読み": 2020,
      "▁君": 2021,
      "▁合衆": 2022,
      "▁追加": 2023,
      "▁操": 2024,
      "▁主に": 2025,
      "▁充": 2026,
      "▁搭": 2027,
      "▁規模": 2028,
      "▁マー": 2029,
      "ill": 2030,
      "▁許": 2031,
      "▁作成": 2032,
      "▁痛": 2033,
      "▁備": 2034,
      "ルス": 2035,
      "▁ヨー": 2036,
      "▁組み": 2037,
      "ネット": 2038,
      "▁バック": 2039,
      "▁http": 2040,
      "り返": 2041,
      "▁到": 2042,
      "▁番号": 2043,
      "▁治療": 2044,
      "▁時点": 2045,
      "▁過去": 2046,
      "▁欲": 2047,
      "▁2005": 2048,
      "▁理解": 2049,
      "▁駆": 2050,
      "▁リリー": 2051,
      "▁魔": 2052,
      "▁導入": 2053,
      "▁サッカー": 2054,
      "▁沖": 2055,
      "▁違う": 2056,
      "▁知っ": 2057,
      "▁○": 2058,
      "▁フリー": 2059,
      "▁ほぼ": 2060,
      "▁連絡": 2061,
      "▁製品": 2062,
      "▁コース": 2063,
      "かし": 2064,
      "▁漫画": 2065,
      "▁ばかり": 2066,
      "ack": 2067,
      "▁藤": 2068,
      "▁どんな": 2069,
      "▁みんな": 2070,
      "▁海外": 2071,
      "▁ビジ": 2072,
      "▁大切": 2073,
      "▁保険": 2074,
      "▁練": 2075,
      "▁出来る": 2076,
      "▁いたし": 2077,
      "▁想": 2078,
      "▁覚": 2079,
      "▁カラー": 2080,
      "▁表現": 2081,
      "▁予約": 2082,
      "▁夢": 2083,
      "▁受賞": 2084,
      "▁住宅": 2085,
      "▁労働": 2086,
      "▁圧": 2087,
      "▁オン": 2088,
      "かく": 2089,
      "▁安全": 2090,
      "▁国内": 2091,
      "▁カップ": 2092,
      "▁タイト": 2093,
      "▁億": 2094,
      "▁スタッフ": 2095,
      "▁pl": 2096,
      "pp": 2097,
      "▁観光": 2098,
      "▁片": 2099,
      "ディング": 2100,
      "イヤ": 2101,
      "▁切り": 2102,
      "ard": 2103,
      "▁既": 2104,
      "▁閉": 2105,
      "▁けれ": 2106,
      "ind": 2107,
      "▁キャラクター": 2108,
      "▁子ども": 2109,
      "▁納": 2110,
      "▁成長": 2111,
      "かい": 2112,
      "▁述": 2113,
      "▁いえ": 2114,
      "▁少なく": 2115,
      "▁ワン": 2116,
      "▁2.": 2117,
      "▁科学": 2118,
      "▁製作": 2119,
      "▁アプリ": 2120,
      "▁形成": 2121,
      "▁つつ": 2122,
      "▁けれど": 2123,
      "-2": 2124,
      "▁はじめ": 2125,
      "▁岡": 2126,
      "▁平均": 2127,
      "いは": 2128,
      "▁勝利": 2129,
      "ment": 2130,
      "▁韓国": 2131,
      "▁ドル": 2132,
      "▁裁": 2133,
      "取り": 2134,
      "▁60": 2135,
      "▁言え": 2136,
      "▁扱": 2137,
      "▁エンジン": 2138,
      "▁幼": 2139,
      "▁留": 2140,
      "▁関し": 2141,
      "エル": 2142,
      "▁試験": 2143,
      "oun": 2144,
      "▁ヴァ": 2145,
      "▁総合": 2146,
      "▁認め": 2147,
      "ld": 2148,
      "▁期待": 2149,
      "▁独立": 2150,
      "▁業務": 2151,
      "▁入る": 2152,
      "15": 2153,
      "▁書き": 2154,
      "▁意識": 2155,
      "▁厳": 2156,
      "▁完成": 2157,
      "▁グラ": 2158,
      "ガー": 2159,
      "▁もっ": 2160,
      "掛け": 2161,
      "▁保護": 2162,
      "▁ター": 2163,
      "▁旅行": 2164,
      "▁対策": 2165,
      "たる": 2166,
      "▁執": 2167,
      "▁交換": 2168,
      "▁奥": 2169,
      "▁ロシア": 2170,
      "▁企画": 2171,
      "▁いず": 2172,
      "▁悩": 2173,
      "しゃ": 2174,
      "▁メーカー": 2175,
      "▁宣": 2176,
      "16": 2177,
      "アン": 2178,
      "▁求め": 2179,
      "▁ar": 2180,
      "▁クリー": 2181,
      "rom": 2182,
      "▁フレ": 2183,
      "▁伝え": 2184,
      "ud": 2185,
      "40": 2186,
      "っくり": 2187,
      "▁考える": 2188,
      "▁安心": 2189,
      "▁すご": 2190,
      "▁バイ": 2191,
      "▁もし": 2192,
      "▁レベル": 2193,
      "▁シェ": 2194,
      "▁良く": 2195,
      "▁リリース": 2196,
      "▁勤": 2197,
      "▁逃": 2198,
      "▁制度": 2199,
      "▁協会": 2200,
      "▁希望": 2201,
      "▁造": 2202,
      "▁あの": 2203,
      "▁多数": 2204,
      "▁新聞": 2205,
      "▁述べ": 2206,
      "▁帯": 2207,
      "▁塩": 2208,
      "▁電子": 2209,
      "▁ごと": 2210,
      "▁過ぎ": 2211,
      "▁伸": 2212,
      "▁学生": 2213,
      "▁能力": 2214,
      "なか": 2215,
      "▁バンド": 2216,
      "▁有名": 2217,
      "▁法人": 2218,
      "▁介": 2219,
      "▁検索": 2220,
      "▁こそ": 2221,
      "all": 2222,
      "▁名称": 2223,
      "▁午": 2224,
      "ver": 2225,
      "ウム": 2226,
      "▁レース": 2227,
      "18": 2228,
      "▁クレ": 2229,
      "▁紙": 2230,
      "▁連続": 2231,
      "▁江戸": 2232,
      "ost": 2233,
      "▁オープ": 2234,
      "▁ぜ": 2235,
      "▁今年": 2236,
      "▁更新": 2237,
      "▁医療": 2238,
      "ts": 2239,
      "▁タイトル": 2240,
      "▁初期": 2241,
      "▁止": 2242,
      "▁健康": 2243,
      "\":\"": 2244,
      "▁ジュ": 2245,
      "▁出会": 2246,
      "▁六": 2247,
      "▁基づ": 2248,
      "▁略": 2249,
      "▁少ない": 2250,
      "▁繰": 2251,
      "▁額": 2252,
      "▁いずれ": 2253,
      "▁まとめ": 2254,
      "▁電気": 2255,
      "▁比べ": 2256,
      "▁大変": 2257,
      "▁列車": 2258,
      "▁ゼ": 2259,
      "▁増え": 2260,
      "▁球": 2261,
      "▁らしい": 2262,
      "▁目指": 2263,
      "ity": 2264,
      "▁皇": 2265,
      "▁共和": 2266,
      "▁あるいは": 2267,
      "ニュー": 2268,
      "▁通信": 2269,
      "▁隣": 2270,
      "▁判断": 2271,
      "ue": 2272,
      "▁ビル": 2273,
      "▁会議": 2274,
      "▁団体": 2275,
      "ラル": 2276,
      "▁甲": 2277,
      "▁戸": 2278,
      "▁1,": 2279,
      "▁スキ": 2280,
      "▁搭載": 2281,
      "▁茶": 2282,
      "▁恐": 2283,
      "▁プログ": 2284,
      "▁請": 2285,
      "▁よい": 2286,
      "ess": 2287,
      "▁<": 2288,
      "チュ": 2289,
      "▁キー": 2290,
      "クション": 2291,
      "▁帝国": 2292,
      "▁頼": 2293,
      "▁倍": 2294,
      "▁事故": 2295,
      "▁魚": 2296,
      "▁アレ": 2297,
      "▁傾": 2298,
      "▁取得": 2299,
      "▁喜": 2300,
      "▁界": 2301,
      "▁ボー": 2302,
      "▁服": 2303,
      "▁支払": 2304,
      "メン": 2305,
      "60": 2306,
      "▁jr": 2307,
      "▁タイム": 2308,
      "▁再び": 2309,
      "▁戦い": 2310,
      "▁体験": 2311,
      "▁嫌": 2312,
      "▁記載": 2313,
      "ib": 2314,
      "▁続き": 2315,
      "▁チェック": 2316,
      "▁角": 2317,
      "▁レー": 2318,
      "▁似": 2319,
      "▁救": 2320,
      "▁永": 2321,
      "ショ": 2322,
      "ere": 2323,
      "▁挙げ": 2324,
      "13": 2325,
      "▁損": 2326,
      "▁クラス": 2327,
      "▁携": 2328,
      "▁打ち": 2329,
      "▁吸": 2330,
      "ッジ": 2331,
      "▁出版": 2332,
      "▁カル": 2333,
      "レット": 2334,
      "▁抱": 2335,
      "▁薄": 2336,
      "▁買っ": 2337,
      "▁授": 2338,
      "▁即": 2339,
      "▁フル": 2340,
      "age": 2341,
      "▁カメ": 2342,
      "▁禁": 2343,
      "▁しば": 2344,
      "▁字": 2345,
      "▁爆": 2346,
      "ニック": 2347,
      "リック": 2348,
      "▁飛行": 2349,
      "14": 2350,
      "▁ドライ": 2351,
      "▁続い": 2352,
      "▁動画": 2353,
      "17": 2354,
      "▁le": 2355,
      "▁直接": 2356,
      "▁チャン": 2357,
      "▁途中": 2358,
      "▁昇": 2359,
      "▁190": 2360,
      "▁シン": 2361,
      "もり": 2362,
      "▁全く": 2363,
      "▁兼": 2364,
      "▁端": 2365,
      "▁建築": 2366,
      "▁辞": 2367,
      "▁障": 2368,
      "▁示す": 2369,
      "▁参照": 2370,
      "▁bl": 2371,
      "▁栄": 2372,
      "▁テーマ": 2373,
      "▁丁目": 2374,
      "▁2004": 2375,
      "リオ": 2376,
      "▁波": 2377,
      "▁派遣": 2378,
      "▁鳥": 2379,
      "▁徒歩": 2380,
      "▁駐": 2381,
      "ミング": 2382,
      "▁経歴": 2383,
      "▁冬": 2384,
      "▁小説": 2385,
      "ie": 2386,
      "▁su": 2387,
      "▁必ず": 2388,
      "▁ティ": 2389,
      "バル": 2390,
      "▁アナ": 2391,
      "▁つな": 2392,
      "▁暗": 2393,
      "/2": 2394,
      "▁誕": 2395,
      "▁移籍": 2396,
      "▁批": 2397,
      "▁舞台": 2398,
      "▁欠": 2399,
      "▁人々": 2400,
      "マー": 2401,
      "▁頑": 2402,
      "▁供": 2403,
      "▁厚": 2404,
      "▁甘": 2405,
      "▁動物": 2406,
      "▁毛": 2407,
      "▁国民": 2408,
      "▁探し": 2409,
      "▁誕生": 2410,
      "▁徳": 2411,
      "▁七": 2412,
      "▁あら": 2413,
      "▁福岡": 2414,
      "▁ランキング": 2415,
      "▁準備": 2416,
      "▁楽しみ": 2417,
      "▁動産": 2418,
      "▁編集": 2419,
      "▁us": 2420,
      "▁神社": 2421,
      "▁勉": 2422,
      "▁近い": 2423,
      "▁抑": 2424,
      "▁敵": 2425,
      "▁部隊": 2426,
      "▁起き": 2427,
      "▁剤": 2428,
      "▁嬉": 2429,
      "▁ダウン": 2430,
      "ゅう": 2431,
      "▁_": 2432,
      "パン": 2433,
      "▁海軍": 2434,
      "ジュ": 2435,
      "▁決勝": 2436,
      "▁コメント": 2437,
      "▁称": 2438,
      "▁消費": 2439,
      "▁つく": 2440,
      "ビア": 2441,
      "▁責": 2442,
      "じる": 2443,
      "▁浮": 2444,
      "▁インド": 2445,
      "▁求人": 2446,
      "▁ミュー": 2447,
      "▁国家": 2448,
      "▁息子": 2449,
      "▁とり": 2450,
      "▁肉": 2451,
      "▁週間": 2452,
      "▁0.": 2453,
      "▁由来": 2454,
      "クス": 2455,
      "▁安定": 2456,
      "はり": 2457,
      "▁幕": 2458,
      "▁過ご": 2459,
      "ウンド": 2460,
      "▁受ける": 2461,
      "▁限り": 2462,
      "▁給": 2463,
      "▁節": 2464,
      "リエ": 2465,
      "▁建物": 2466,
      "▁弱": 2467,
      "▁やはり": 2468,
      "▁作る": 2469,
      "▁時計": 2470,
      "▁範": 2471,
      "▁ちな": 2472,
      "▁口コミ": 2473,
      "▁なかなか": 2474,
      "end": 2475,
      "▁志": 2476,
      "ies": 2477,
      "▁二人": 2478,
      "▁妻": 2479,
      "▁cl": 2480,
      "▁3.": 2481,
      "▁診": 2482,
      "▁戦闘": 2483,
      "トル": 2484,
      "▁づ": 2485,
      "▁演奏": 2486,
      "▁ラジオ": 2487,
      "古屋": 2488,
      "▁悪い": 2489,
      "▁中古": 2490,
      "▁排": 2491,
      "▁答": 2492,
      "▁今後": 2493,
      "our": 2494,
      "▁板": 2495,
      "az": 2496,
      "▁土地": 2497,
      "▁十分": 2498,
      "ロッパ": 2499,
      "▁空港": 2500,
      "▁整備": 2501,
      "▁配信": 2502,
      "▁読む": 2503,
      "▁以来": 2504,
      "▁一覧": 2505,
      "▁実現": 2506,
      "▁門": 2507,
      "▁売り": 2508,
      "cc": 2509,
      "ンチ": 2510,
      "▁ヨーロッパ": 2511,
      "▁行政": 2512,
      "▁名古屋": 2513,
      "▁トレ": 2514,
      "▁層": 2515,
      "▁触": 2516,
      "▁維": 2517,
      "▁なぁ": 2518,
      "▁紀": 2519,
      "▁模": 2520,
      "▁出る": 2521,
      "▁練習": 2522,
      "ストラ": 2523,
      "▁魅": 2524,
      "▁参考": 2525,
      "▁アジア": 2526,
      "▁候": 2527,
      "▁警察": 2528,
      "▁皮": 2529,
      "いろ": 2530,
      "▁用意": 2531,
      "▁勉強": 2532,
      "▁形式": 2533,
      "▁ベース": 2534,
      "▁動き": 2535,
      "▁取引": 2536,
      "▁拡大": 2537,
      "▁注文": 2538,
      "▁刺": 2539,
      "込ま": 2540,
      "▁昼": 2541,
      "▁自ら": 2542,
      "▁壁": 2543,
      "シャル": 2544,
      "ant": 2545,
      "▁勢": 2546,
      "▁本作": 2547,
      "▁協力": 2548,
      "ーブル": 2549,
      "▁なぜ": 2550,
      "▁スタイル": 2551,
      "たっ": 2552,
      "▁早く": 2553,
      "▁地元": 2554,
      "▁済": 2555,
      "▁みな": 2556,
      "▁老": 2557,
      "▁サポート": 2558,
      "▁見せ": 2559,
      "**": 2560,
      "▁that": 2561,
      "▁黄": 2562,
      "▁筋": 2563,
      "▁含め": 2564,
      "▁おか": 2565,
      "▁燃": 2566,
      "ob": 2567,
      "▁人生": 2568,
      "▁編成": 2569,
      "▁食事": 2570,
      "▁脚": 2571,
      "amp": 2572,
      "▁忘": 2573,
      "▁依頼": 2574,
      "ort": 2575,
      "▁スタート": 2576,
      "▁家庭": 2577,
      "リティ": 2578,
      "▁エン": 2579,
      "▁産業": 2580,
      "▁秒": 2581,
      "ge": 2582,
      "▁避": 2583,
      "▁間違": 2584,
      "▁賃": 2585,
      "ジー": 2586,
      "▁宇宙": 2587,
      "▁巡": 2588,
      "イズ": 2589,
      "▁発行": 2590,
      "▁湖": 2591,
      "ぱり": 2592,
      "▁自己": 2593,
      "▁養": 2594,
      "▁業者": 2595,
      "▁ぬ": 2596,
      "▁フラ": 2597,
      "▁35": 2598,
      "▁裁判": 2599,
      "▁敷": 2600,
      "▁物語": 2601,
      "▁乾": 2602,
      "▁隠": 2603,
      "▁素材": 2604,
      "▁cd": 2605,
      "▁価値": 2606,
      "ミー": 2607,
      "sp": 2608,
      "▁コピー": 2609,
      "▁自治": 2610,
      "▁印象": 2611,
      "込む": 2612,
      "▁ベスト": 2613,
      "▁専用": 2614,
      "▁議会": 2615,
      "▁誘": 2616,
      "▁迎え": 2617,
      "▁疑": 2618,
      "▁百": 2619,
      "▁包": 2620,
      "▁免": 2621,
      "▁きっ": 2622,
      "▁終わっ": 2623,
      "▁ニュース": 2624,
      "シング": 2625,
      "▁いろいろ": 2626,
      "▁横浜": 2627,
      "ice": 2628,
      "▁カメラ": 2629,
      "ーリー": 2630,
      "▁オリジ": 2631,
      "▁工場": 2632,
      "▁砲": 2633,
      "ex": 2634,
      "▁折": 2635,
      "▁にく": 2636,
      "ff": 2637,
      "▁投資": 2638,
      "cl": 2639,
      "▁ad": 2640,
      "▁小さな": 2641,
      "▁共同": 2642,
      "▁幹": 2643,
      "▁主張": 2644,
      "▁散": 2645,
      "▁トン": 2646,
      "▁社長": 2647,
      "ell": 2648,
      "▁ハー": 2649,
      "ゆる": 2650,
      "ジェクト": 2651,
      "▁骨": 2652,
      "▁臨": 2653,
      "▁候補": 2654,
      "▁池": 2655,
      "▁快": 2656,
      "▁祝": 2657,
      "▁相場": 2658,
      "▁映像": 2659,
      "▁フロ": 2660,
      "▁形態": 2661,
      "▁主人": 2662,
      "▁広島": 2663,
      "▁pr": 2664,
      "▁ビジネス": 2665,
      "▁大人": 2666,
      "▁リンク": 2667,
      "キュ": 2668,
      "▁作曲": 2669,
      "▁耐": 2670,
      "▁張": 2671,
      "▁築": 2672,
      "▁プラン": 2673,
      "▁上記": 2674,
      "▁おく": 2675,
      "▁捕": 2676,
      "▁表記": 2677,
      "▁検討": 2678,
      "▁美術": 2679,
      "▁接続": 2680,
      "▁ロック": 2681,
      "▁解説": 2682,
      "▁長い": 2683,
      "▁2003": 2684,
      "▁犬": 2685,
      "▁強く": 2686,
      "▁会員": 2687,
      "▁あたり": 2688,
      "▁夕": 2689,
      "▁ファイル": 2690,
      "▁マンション": 2691,
      "▁障害": 2692,
      "▁わから": 2693,
      "▁頑張": 2694,
      "リンピック": 2695,
      "▁解決": 2696,
      "出す": 2697,
      "▁オープン": 2698,
      "▁連合": 2699,
      "▁特定": 2700,
      "ight": 2701,
      "▁jp": 2702,
      "っき": 2703,
      "▁運行": 2704,
      "▁成績": 2705,
      "▁港": 2706,
      "▁反応": 2707,
      "▁意見": 2708,
      "▁改善": 2709,
      "▁席": 2710,
      "▁空間": 2711,
      "▁やる": 2712,
      "▁運用": 2713,
      "▁物件": 2714,
      "▁from": 2715,
      "わい": 2716,
      "▁堂": 2717,
      "▁規定": 2718,
      "▁もらっ": 2719,
      "▁事実": 2720,
      "▁難しい": 2721,
      "▁密": 2722,
      "▁オリジナル": 2723,
      "▁分類": 2724,
      "▁果たし": 2725,
      "▁範囲": 2726,
      "▁つまり": 2727,
      "▁フラン": 2728,
      "▁機会": 2729,
      "▁リフォーム": 2730,
      "▁又": 2731,
      "▁カン": 2732,
      "ction": 2733,
      "▁189": 2734,
      "てる": 2735,
      "▁宝": 2736,
      "▁熊": 2737,
      "▁基準": 2738,
      "▁ガス": 2739,
      "▁越": 2740,
      "▁葉": 2741,
      "ian": 2742,
      "ich": 2743,
      "▁競技": 2744,
      "▁トイ": 2745,
      "▁残っ": 2746,
      "▁教会": 2747,
      "▁スピ": 2748,
      "▁メイン": 2749,
      "ook": 2750,
      "▁32": 2751,
      "続き": 2752,
      "▁売却": 2753,
      "▁廃止": 2754,
      "▁様子": 2755,
      "▁作ら": 2756,
      "ケーション": 2757,
      "▁勧": 2758,
      "▁レコ": 2759,
      "▁制御": 2760,
      "▁削": 2761,
      "▁弟": 2762,
      "▁わかり": 2763,
      "▁興味": 2764,
      "▁co": 2765,
      "▁圏": 2766,
      "▁責任": 2767,
      "▁エネル": 2768,
      "▁前記": 2769,
      "▁スカ": 2770,
      "▁つき": 2771,
      "▁互": 2772,
      "▁質問": 2773,
      "▁千葉": 2774,
      "▁巨": 2775,
      "▁wor": 2776,
      "▁ローマ": 2777,
      "▁請求": 2778,
      "▁源": 2779,
      "▁鹿": 2780,
      "リット": 2781,
      "▁外国": 2782,
      "▁反対": 2783,
      "▁踏": 2784,
      "▁昔": 2785,
      "▁4.": 2786,
      "ial": 2787,
      "▁発展": 2788,
      "▁地下": 2789,
      "▁驚": 2790,
      "▁離れ": 2791,
      "▁草": 2792,
      "▁景": 2793,
      "▁増加": 2794,
      "▁知り": 2795,
      "▁大きい": 2796,
      "▁やすく": 2797,
      "▁現代": 2798,
      "▁あげ": 2799,
      "リーン": 2800,
      "▁投稿": 2801,
      "▁エア": 2802,
      "▁植物": 2803,
      "▁ミュージ": 2804,
      "ec": 2805,
      "▁失敗": 2806,
      "iz": 2807,
      "▁承": 2808,
      "▁革": 2809,
      "▁分野": 2810,
      "▁ゴール": 2811,
      "▁羽": 2812,
      "▁雰": 2813,
      "▁指揮": 2814,
      "統領": 2815,
      "▁大統領": 2816,
      "▁濃": 2817,
      "▁雰囲": 2818,
      "▁プレー": 2819,
      "▁温泉": 2820,
      "▁柔": 2821,
      "▁雰囲気": 2822,
      "▁友人": 2823,
      "▁自体": 2824,
      "ルム": 2825,
      "▁招": 2826,
      "▁借り": 2827,
      "▁どちら": 2828,
      "▁設け": 2829,
      "▁疲": 2830,
      "▁玉": 2831,
      "▁精神": 2832,
      "▁注目": 2833,
      "シン": 2834,
      "▁民主": 2835,
      "ber": 2836,
      "▁樹": 2837,
      "▁エリア": 2838,
      "▁いただい": 2839,
      "▁高速": 2840,
      "▁エネルギー": 2841,
      "per": 2842,
      "are": 2843,
      "ズム": 2844,
      "▁面白": 2845,
      "▁ツアー": 2846,
      "▁天皇": 2847,
      "▁枠": 2848,
      "▁児": 2849,
      "▁支持": 2850,
      "▁web": 2851,
      "▁画面": 2852,
      "しかっ": 2853,
      "ダル": 2854,
      "▁ピア": 2855,
      "▁明らか": 2856,
      "▁インターネット": 2857,
      "▁制限": 2858,
      "▁クリス": 2859,
      "▁活用": 2860,
      "▁調べ": 2861,
      "▁言語": 2862,
      "▁プリ": 2863,
      "レーション": 2864,
      "▁沖縄": 2865,
      "com": 2866,
      "25": 2867,
      "▁到着": 2868,
      "▁挑": 2869,
      "▁見える": 2870,
      "▁勝ち": 2871,
      "▁牛": 2872,
      "▁文学": 2873,
      "ast": 2874,
      "▁やら": 2875,
      "▁進め": 2876,
      "▁検査": 2877,
      "▁細胞": 2878,
      "▁抗": 2879,
      "▁金額": 2880,
      "ドル": 2881,
      "▁不安": 2882,
      "▁示し": 2883,
      "▁確か": 2884,
      "▁アカ": 2885,
      "▁2002": 2886,
      "▁桜": 2887,
      "▁おき": 2888,
      "▁調整": 2889,
      "▁審査": 2890,
      "▁45": 2891,
      "▁会長": 2892,
      "▁目標": 2893,
      "▁見積": 2894,
      "▁通じ": 2895,
      "テム": 2896,
      "▁緑": 2897,
      "▁new": 2898,
      "▁看": 2899,
      "▁習": 2900,
      "▁引退": 2901,
      "▁押し": 2902,
      "▁被害": 2903,
      "▁後半": 2904,
      "▁飲み": 2905,
      "▁ボール": 2906,
      "▁1990": 2907,
      "▁汚": 2908,
      "▁工業": 2909,
      "▁魅力": 2910,
      "▁液": 2911,
      "▁no": 2912,
      "ame": 2913,
      "▁忘れ": 2914,
      "▁操作": 2915,
      "▁迷": 2916,
      "▁メディア": 2917,
      "io": 2918,
      "▁80": 2919,
      "70": 2920,
      "ure": 2921,
      "▁コード": 2922,
      "▁秘": 2923,
      "▁麻": 2924,
      "xxxx": 2925,
      "▁募": 2926,
      "▁コロ": 2927,
      "リート": 2928,
      "▁問い": 2929,
      "▁追い": 2930,
      "▁自宅": 2931,
      "▁■": 2932,
      "▁窓": 2933,
      "▁@": 2934,
      "▁ショップ": 2935,
      "▁絶対": 2936,
      "▁モン": 2937,
      "▁脱毛": 2938,
      "▁身体": 2939,
      "▁望": 2940,
      "▁提案": 2941,
      "ルク": 2942,
      "▁バッグ": 2943,
      "▁プログラム": 2944,
      "ュニ": 2945,
      "ピング": 2946,
      "▁尾": 2947,
      "▁庁": 2948,
      "▁メートル": 2949,
      "▁湯": 2950,
      "▁¥": 2951,
      "▁かかる": 2952,
      "▁ホール": 2953,
      "▁患": 2954,
      "▁吹": 2955,
      "▁輸送": 2956,
      "▁頂き": 2957,
      "▁mar": 2958,
      "▁法律": 2959,
      "▁チョ": 2960,
      "▁オリンピック": 2961,
      "▁アイテム": 2962,
      "ンプル": 2963,
      "▁配置": 2964,
      "▁保存": 2965,
      "▁死去": 2966,
      "▁照": 2967,
      "▁2001": 2968,
      "キシ": 2969,
      "▁支配": 2970,
      "▁聴": 2971,
      "ーキ": 2972,
      "プト": 2973,
      "▁呼び": 2974,
      "▁測": 2975,
      "▁友達": 2976,
      "▁主要": 2977,
      "▁欲しい": 2978,
      "▁スイ": 2979,
      "▁付近": 2980,
      "▁cm": 2981,
      "▁form": 2982,
      "▁せい": 2983,
      "▁塗装": 2984,
      "▁ずっと": 2985,
      "▁うま": 2986,
      "▁純": 2987,
      "▁ちなみ": 2988,
      "▁境": 2989,
      "▁ブラック": 2990,
      "▁感染": 2991,
      "▁要素": 2992,
      "▁まさ": 2993,
      "▁犯": 2994,
      "▁雪": 2995,
      "▁結局": 2996,
      "▁のち": 2997,
      "▁故": 2998,
      "なわ": 2999,
      "aw": 3000,
      "▁大臣": 3001,
      "▁ab": 3002,
      "▁やっぱり": 3003,
      "▁砂": 3004,
      "▁作用": 3005,
      "▁スパ": 3006,
      "qu": 3007,
      "▁ラー": 3008,
      "▁漢": 3009,
      "▁変え": 3010,
      "▁are": 3011,
      "sh": 3012,
      "▁オフ": 3013,
      "▁色々": 3014,
      "▁侵": 3015,
      "つけ": 3016,
      "▁暴": 3017,
      "▁暮": 3018,
      "▁たっ": 3019,
      "ギュ": 3020,
      "▁500": 3021,
      "▁奪": 3022,
      "ワーク": 3023,
      "▁アクセス": 3024,
      "▁ユーザー": 3025,
      "▁知識": 3026,
      "▁地球": 3027,
      "ml": 3028,
      "▁入力": 3029,
      "▁読ん": 3030,
      "▁訳": 3031,
      "▁変わっ": 3032,
      "▁トイレ": 3033,
      "▁維持": 3034,
      "▁続く": 3035,
      "▁–": 3036,
      "▁姉": 3037,
      "▁アフ": 3038,
      "▁スケ": 3039,
      "▁ライト": 3040,
      "▁大正": 3041,
      "▁スペイン": 3042,
      "ーナ": 3043,
      "▁雑誌": 3044,
      "▁倒": 3045,
      "90": 3046,
      "▁en": 3047,
      "ンズ": 3048,
      "▁ずつ": 3049,
      "▁政策": 3050,
      "▁ワールド": 3051,
      "組み": 3052,
      "スメ": 3053,
      "▁唯": 3054,
      "▁金融": 3055,
      "▁生徒": 3056,
      "ッキ": 3057,
      "▁併": 3058,
      "▁ジョン": 3059,
      "チェ": 3060,
      "▁段階": 3061,
      "▁努": 3062,
      "▁髪": 3063,
      "▁レイ": 3064,
      "▁書か": 3065,
      "▁崩": 3066,
      "▁部門": 3067,
      "セン": 3068,
      "▁通販": 3069,
      "▁仏": 3070,
      "ust": 3071,
      "▁便利": 3072,
      "▁俳": 3073,
      "▁感じる": 3074,
      "▁微": 3075,
      "▁70": 3076,
      "▁大戦": 3077,
      "▁良かっ": 3078,
      "▁成分": 3079,
      "ect": 3080,
      "▁会場": 3081,
      "▁仕様": 3082,
      "▁行為": 3083,
      "▁pc": 3084,
      "▁騎": 3085,
      "▁誤": 3086,
      "そう": 3087,
      "▁向上": 3088,
      "▁建て": 3089,
      "tr": 3090,
      "▁油": 3091,
      "▁カリ": 3092,
      "▁資格": 3093,
      "▁繰り返": 3094,
      "エット": 3095,
      "▁勤務": 3096,
      "▁結成": 3097,
      "ug": 3098,
      "ジャ": 3099,
      "▁リン": 3100,
      "▁連邦": 3101,
      "ジャー": 3102,
      "▁本人": 3103,
      "ざま": 3104,
      "▁心配": 3105,
      "▁致": 3106,
      "▁方面": 3107,
      "▁プロジェクト": 3108,
      "▁°": 3109,
      "▁資料": 3110,
      "ミン": 3111,
      "▁方式": 3112,
      "ッサ": 3113,
      "▁ジャン": 3114,
      "▁◆": 3115,
      "▁主な": 3116,
      "▁可愛": 3117,
      "▁キロ": 3118,
      "▁コミュニ": 3119,
      "▁払": 3120,
      "▁カバー": 3121,
      "▁計算": 3122,
      "ah": 3123,
      "▁誌": 3124,
      "▁36": 3125,
      "▁ニューヨ": 3126,
      "▁fc": 3127,
      "▁米国": 3128,
      "レート": 3129,
      "デオ": 3130,
      "丈夫": 3131,
      "▁繋": 3132,
      "▁祖": 3133,
      "ok": 3134,
      "▁緊": 3135,
      "▁メニュー": 3136,
      "▁批判": 3137,
      "▁レンタ": 3138,
      "▁バル": 3139,
      "▁どれ": 3140,
      "▁標準": 3141,
      "▁引っ": 3142,
      "▁林": 3143,
      "▁出す": 3144,
      "ong": 3145,
      "pl": 3146,
      "▁ニューヨーク": 3147,
      "▁得る": 3148,
      "▁拠": 3149,
      "▁シーン": 3150,
      "▁1980": 3151,
      "▁満足": 3152,
      "▁バラ": 3153,
      "▁プレゼ": 3154,
      "▁送料": 3155,
      "▁2021": 3156,
      "▁阿": 3157,
      "▁周り": 3158,
      "gt": 3159,
      "ボール": 3160,
      "▁ミニ": 3161,
      "▁成立": 3162,
      "ire": 3163,
      "▁sc": 3164,
      "▁食べる": 3165,
      "らしい": 3166,
      "▁告": 3167,
      "▁貸": 3168,
      "切り": 3169,
      "▁ぐらい": 3170,
      "▁大事": 3171,
      "▁しかも": 3172,
      "立て": 3173,
      "▁無理": 3174,
      "▁昨日": 3175,
      "▁固定": 3176,
      "▁33": 3177,
      "▁デジ": 3178,
      "▁電車": 3179,
      "▁携帯": 3180,
      "▁選ば": 3181,
      "▁太陽": 3182,
      "▁整理": 3183,
      "▁布": 3184,
      "▁芸術": 3185,
      "▁郵": 3186,
      "▁いや": 3187,
      "ass": 3188,
      "▁不明": 3189,
      "▁集め": 3190,
      "▁欧": 3191,
      "▁指摘": 3192,
      "▁伴い": 3193,
      "▁市民": 3194,
      "▁ほしい": 3195,
      "▁対戦": 3196,
      "▁エル": 3197,
      "▁従来": 3198,
      "▁作戦": 3199,
      "▁もらう": 3200,
      "▁たま": 3201,
      "ヴェ": 3202,
      "▁定期": 3203,
      "でに": 3204,
      "kg": 3205,
      "▁傷": 3206,
      "▁詩": 3207,
      "▁怪": 3208,
      "▁br": 3209,
      "▁ok": 3210,
      "▁更に": 3211,
      "▁ぜひ": 3212,
      "▁衛": 3213,
      "▁すでに": 3214,
      "▁年齢": 3215,
      "vd": 3216,
      "▁ギャ": 3217,
      "▁ぞ": 3218,
      "phone": 3219,
      "▁楽曲": 3220,
      "▁劇場": 3221,
      "▁神奈": 3222,
      "▁坂": 3223,
      "▁トラック": 3224,
      "▁スコ": 3225,
      "▁もらい": 3226,
      "ax": 3227,
      "▁札": 3228,
      "▁寒": 3229,
      "▁聞き": 3230,
      "▁実行": 3231,
      "▁来る": 3232,
      "▁無く": 3233,
      "\",\"": 3234,
      "▁礼": 3235,
      "▁ph": 3236,
      "▁奈": 3237,
      "▁野菜": 3238,
      "▁陸軍": 3239,
      "itter": 3240,
      "▁族": 3241,
      "▁展示": 3242,
      "▁忠": 3243,
      "▁材料": 3244,
      "▁井": 3245,
      "ずか": 3246,
      "48": 3247,
      "▁ヴェ": 3248,
      "▁復帰": 3249,
      "▁答え": 3250,
      "▁箱": 3251,
      "▁くん": 3252,
      "▁188": 3253,
      "ix": 3254,
      "んと": 3255,
      "トロ": 3256,
      "セル": 3257,
      "▁ステージ": 3258,
      "▁よれ": 3259,
      "▁大型": 3260,
      "▁相当": 3261,
      "▁継続": 3262,
      "▁基礎": 3263,
      "▁達成": 3264,
      "▁待ち": 3265,
      "▁亡": 3266,
      "▁神奈川": 3267,
      "▁置い": 3268,
      "▁トレー": 3269,
      "▁撤": 3270,
      "マス": 3271,
      "▁結構": 3272,
      "▁コンピ": 3273,
      "▁ブルー": 3274,
      "ない": 3275,
      "▁猫": 3276,
      "ord": 3277,
      "▁患者": 3278,
      "▁危険": 3279,
      "▁秀": 3280,
      "▁クリック": 3281,
      "▁通し": 3282,
      "▁録": 3283,
      "▁独自": 3284,
      "▁安い": 3285,
      "▁所有": 3286,
      "▁カナ": 3287,
      "▁来歴": 3288,
      "▁プレイ": 3289,
      "▁iphone": 3290,
      "▁応じ": 3291,
      "▁バージ": 3292,
      "▁荷": 3293,
      "▁是": 3294,
      "▁戻っ": 3295,
      "しくは": 3296,
      "▁残し": 3297,
      "▁id": 3298,
      "▁試し": 3299,
      "▁装備": 3300,
      "▁同じく": 3301,
      "▁溶": 3302,
      "▁さまざま": 3303,
      "ウェア": 3304,
      "▁愛知": 3305,
      "▁面積": 3306,
      "▁案内": 3307,
      "▁少年": 3308,
      "▁予想": 3309,
      "▁きれ": 3310,
      "▁nh": 3311,
      "▁唯一": 3312,
      "▁90": 3313,
      "イヤー": 3314,
      "▁図書": 3315,
      "▁浴": 3316,
      "レンジ": 3317,
      "▁仲間": 3318,
      "▁パート": 3319,
      "▁サラ": 3320,
      ":5": 3321,
      "▁前後": 3322,
      "▁毎年": 3323,
      "▁竹": 3324,
      "▁速度": 3325,
      "▁おら": 3326,
      "▁アウト": 3327,
      "▁app": 3328,
      "▁te": 3329,
      "▁住民": 3330,
      "▁まっ": 3331,
      "▁保証": 3332,
      "▁クル": 3333,
      "▁荒": 3334,
      "▁発電": 3335,
      "▁否": 3336,
      "▁向かっ": 3337,
      "▁埋": 3338,
      "▁仙": 3339,
      "▁台湾": 3340,
      "▁ストーリー": 3341,
      "▁シート": 3342,
      "▁趣": 3343,
      "▁設備": 3344,
      "▁パイ": 3345,
      "▁1999": 3346,
      "bs": 3347,
      "▁貢": 3348,
      "22": 3349,
      "▁社員": 3350,
      "▁季": 3351,
      "▁広告": 3352,
      "たく": 3353,
      "▁谷": 3354,
      "▁潜": 3355,
      "▁いま": 3356,
      "▁引越し": 3357,
      "ッケ": 3358,
      "▁腕": 3359,
      "▁手段": 3360,
      "▁浅": 3361,
      "サン": 3362,
      "▁衝": 3363,
      "▁終わり": 3364,
      "▁楽しい": 3365,
      "▁傾向": 3366,
      "▁わたし": 3367,
      "▁役割": 3368,
      "▁政権": 3369,
      "▁学習": 3370,
      "▁ローン": 3371,
      "▁分析": 3372,
      "ースト": 3373,
      "▁イス": 3374,
      "▁記憶": 3375,
      "▁陣": 3376,
      "ish": 3377,
      "ide": 3378,
      "▁乗っ": 3379,
      "▁券": 3380,
      "▁シー": 3381,
      "▁区間": 3382,
      "おり": 3383,
      "▁定義": 3384,
      "▁回転": 3385,
      "▁世代": 3386,
      "▁選出": 3387,
      "▁競馬": 3388,
      "ang": 3389,
      "▁コンサ": 3390,
      "▁投票": 3391,
      "▁応援": 3392,
      "▁確保": 3393,
      "▁働き": 3394,
      "▁話題": 3395,
      "▁有効": 3396,
      "▁関西": 3397,
      "▁公演": 3398,
      "▁空気": 3399,
      "▁ざ": 3400,
      "▁合併": 3401,
      "▁修理": 3402,
      "ゲン": 3403,
      "▁トリ": 3404,
      "▁イラ": 3405,
      "ぱい": 3406,
      "▁ぼ": 3407,
      "-3": 3408,
      "▁性能": 3409,
      "▁明日": 3410,
      "▁ケア": 3411,
      "▁なさ": 3412,
      "▁機械": 3413,
      "▁ビデオ": 3414,
      "っち": 3415,
      "▁負担": 3416,
      "▁続ける": 3417,
      "ントン": 3418,
      "▁スペース": 3419,
      "▁最新": 3420,
      "▁慶": 3421,
      "▁レディ": 3422,
      "▁当たり": 3423,
      "45": 3424,
      "▁伝統": 3425,
      "らす": 3426,
      "▁沢": 3427,
      "▁具体": 3428,
      "▁正式": 3429,
      "▁入れる": 3430,
      "▁カット": 3431,
      "▁脳": 3432,
      "ry": 3433,
      "ory": 3434,
      "▁187": 3435,
      "▁長く": 3436,
      "▁コレ": 3437,
      "▁募集": 3438,
      "▁低い": 3439,
      "▁備え": 3440,
      "たす": 3441,
      "so": 3442,
      "▁生物": 3443,
      "▁埼": 3444,
      "▁パス": 3445,
      "▁アラ": 3446,
      "上がり": 3447,
      "▁作家": 3448,
      "▁衣": 3449,
      "▁パソ": 3450,
      "▁いただけ": 3451,
      "▁朝鮮": 3452,
      "▁津": 3453,
      "▁神戸": 3454,
      "ary": 3455,
      "▁見つけ": 3456,
      "▁コンピュー": 3457,
      "▁よろ": 3458,
      "▁プラス": 3459,
      "▁1)": 3460,
      "▁なれ": 3461,
      "▁普段": 3462,
      "▁日間": 3463,
      "▁きっかけ": 3464,
      "▁comp": 3465,
      "▁大丈夫": 3466,
      "っきり": 3467,
      "▁メッセ": 3468,
      "▁パリ": 3469,
      "▁軸": 3470,
      "▁釣": 3471,
      "▁ファイ": 3472,
      "▁goo": 3473,
      "▁訴": 3474,
      "ンドン": 3475,
      "▁領域": 3476,
      "▁始める": 3477,
      "▁稼": 3478,
      "ッズ": 3479,
      "▁不足": 3480,
      ":0": 3481,
      "ear": 3482,
      "▁マーク": 3483,
      "▁取っ": 3484,
      "バイ": 3485,
      "▁乱": 3486,
      "▁ホワ": 3487,
      "▁認識": 3488,
      "▁描い": 3489,
      "▁憲": 3490,
      "▁強化": 3491,
      "▁現実": 3492,
      "▁オブ": 3493,
      "▁取締": 3494,
      "▁現場": 3495,
      "▁マネ": 3496,
      "▁実験": 3497,
      "▁本来": 3498,
      "ティブ": 3499,
      "▁バイク": 3500,
      "▁ポジ": 3501,
      "▁1970": 3502,
      "▁代わり": 3503,
      "▁背景": 3504,
      "▁機器": 3505,
      "▁盛り": 3506,
      "▁記述": 3507,
      "▁梅": 3508,
      "▁内部": 3509,
      "▁300": 3510,
      "▁係": 3511,
      "▁コント": 3512,
      "▁広く": 3513,
      "te": 3514,
      "▁国立": 3515,
      "▁バッ": 3516,
      "▁タン": 3517,
      "▁さて": 3518,
      "▁all": 3519,
      "▁開業": 3520,
      "▁新潟": 3521,
      "▁ちょう": 3522,
      "▁かか": 3523,
      "▁1000": 3524,
      "▁連れ": 3525,
      "ガン": 3526,
      "▁び": 3527,
      "▁加入": 3528,
      "▁慣": 3529,
      "▁共通": 3530,
      "▁パソコン": 3531,
      "▁38": 3532,
      "▁賃貸": 3533,
      "▁スマホ": 3534,
      "▁既に": 3535,
      "▁全員": 3536,
      "▁nhk": 3537,
      "▁以後": 3538,
      "▁摂": 3539,
      "ows": 3540,
      "▁症状": 3541,
      "▁炭": 3542,
      "up": 3543,
      "▁融": 3544,
      "▁電力": 3545,
      "▁関東": 3546,
      "▁顧": 3547,
      "▁譲": 3548,
      "▁リスト": 3549,
      "▁埼玉": 3550,
      "▁得点": 3551,
      "▁5.": 3552,
      "▁貢献": 3553,
      "▁減少": 3554,
      "▁焼き": 3555,
      "▁書籍": 3556,
      "ッキー": 3557,
      "▁感謝": 3558,
      "af": 3559,
      "▁(\"": 3560,
      "▁連載": 3561,
      "▁プロデ": 3562,
      "▁単位": 3563,
      "▁プライ": 3564,
      "▁パラ": 3565,
      "▁弁護": 3566,
      "▁twitter": 3567,
      "▁嬉しい": 3568,
      "▁訪問": 3569,
      "▁渋": 3570,
      "▁進出": 3571,
      "▁辛": 3572,
      "▁fr": 3573,
      "▁狭": 3574,
      "▁互い": 3575,
      "▁残り": 3576,
      "▁his": 3577,
      "2)": 3578,
      "▁駐車": 3579,
      "ーチ": 3580,
      "▁富士": 3581,
      "▁1998": 3582,
      "▁刑": 3583,
      "▁交流": 3584,
      "▁目指し": 3585,
      "▁締": 3586,
      "ッス": 3587,
      "▁ブレ": 3588,
      "▁化学": 3589,
      "▁盤": 3590,
      "▁'": 3591,
      "▁問い合わせ": 3592,
      "▁モノ": 3593,
      "ula": 3594,
      "▁ホワイト": 3595,
      "▁各地": 3596,
      "▁dvd": 3597,
      "▁章": 3598,
      "23": 3599,
      "▁美味しい": 3600,
      "▁振り": 3601,
      "ーフ": 3602,
      "▁ワーク": 3603,
      "▁九州": 3604,
      "▁狙": 3605,
      "ail": 3606,
      "▁資金": 3607,
      "▁モード": 3608,
      "▁阪": 3609,
      "▁小さい": 3610,
      "▁会話": 3611,
      "▁気づ": 3612,
      "▁上手": 3613,
      "ミア": 3614,
      "▁当然": 3615,
      "▁−": 3616,
      "▁始まっ": 3617,
      "▁中学": 3618,
      "▁コーナー": 3619,
      "▁にくい": 3620,
      "▁ボタン": 3621,
      "(\"": 3622,
      "▁組み合わせ": 3623,
      "▁負け": 3624,
      "▁ズ": 3625,
      "▁表面": 3626,
      "▁跡": 3627,
      "好き": 3628,
      "ゴン": 3629,
      "▁バイト": 3630,
      "ッピング": 3631,
      "▁俳優": 3632,
      "▁紅": 3633,
      "▁テスト": 3634,
      "▁覚え": 3635,
      "テナ": 3636,
      "▁信号": 3637,
      "▁挑戦": 3638,
      "▁カラ": 3639,
      "▁致し": 3640,
      "▁バランス": 3641,
      "▁怒": 3642,
      "ルド": 3643,
      "▁適用": 3644,
      "▁改正": 3645,
      "ime": 3646,
      "▁km": 3647,
      "▁ファッション": 3648,
      "▁博士": 3649,
      "▁クリーム": 3650,
      "▁スタジオ": 3651,
      "▁発明": 3652,
      "ach": 3653,
      "▁分から": 3654,
      "▁信頼": 3655,
      "▁エレ": 3656,
      "▁鈴": 3657,
      "▁地理": 3658,
      "▁デジタル": 3659,
      "▁理事": 3660,
      "▁自転": 3661,
      "▁選び": 3662,
      "▁コンビ": 3663,
      "スコ": 3664,
      "▁選ぶ": 3665,
      "▁this": 3666,
      "▁素晴": 3667,
      "200": 3668,
      "▁入学": 3669,
      "▁中華": 3670,
      "ite": 3671,
      "▁浜": 3672,
      "▁耳": 3673,
      "▁もしくは": 3674,
      "▁ユニット": 3675,
      "▁ハウス": 3676,
      "▁南部": 3677,
      "▁プレゼント": 3678,
      "▁所在": 3679,
      "▁再生": 3680,
      "▁34": 3681,
      "▁進ん": 3682,
      "▁分かり": 3683,
      "▁食品": 3684,
      "▁近年": 3685,
      "▁古い": 3686,
      "▁恵": 3687,
      "24": 3688,
      "▁双": 3689,
      "▁収入": 3690,
      "▁ii": 3691,
      "バイス": 3692,
      "▁2,": 3693,
      "▁異なり": 3694,
      "▁了": 3695,
      "▁語っ": 3696,
      "pe": 3697,
      "▁令": 3698,
      "▁利益": 3699,
      "▁静岡": 3700,
      "▁拠点": 3701,
      "▁王国": 3702,
      "ated": 3703,
      "▁ギリ": 3704,
      "ロード": 3705,
      "▁禁止": 3706,
      "▁飛び": 3707,
      "▁一時": 3708,
      "▁ススメ": 3709,
      "▁初代": 3710,
      "▁地震": 3711,
      "▁幸せ": 3712,
      "▁描か": 3713,
      "▁課題": 3714,
      "▁たと": 3715,
      "iew": 3716,
      "▁レスト": 3717,
      "▁襲": 3718,
      "▁疲れ": 3719,
      "▁加工": 3720,
      "ターン": 3721,
      "ond": 3722,
      "ナス": 3723,
      "▁万人": 3724,
      "▁生涯": 3725,
      "▁屋根": 3726,
      "▁翌年": 3727,
      "▁37": 3728,
      "換え": 3729,
      "▁元年": 3730,
      "▁軌": 3731,
      "▁湾": 3732,
      "▁美容": 3733,
      "▁1997": 3734,
      "▁セル": 3735,
      "▁フォン": 3736,
      "▁統合": 3737,
      "▁回答": 3738,
      "▁帰っ": 3739,
      "▁合計": 3740,
      "▁午後": 3741,
      "▁日々": 3742,
      "しろ": 3743,
      "▁col": 3744,
      "▁体制": 3745,
      "▁上げ": 3746,
      "▁綺": 3747,
      "ボン": 3748,
      "▁若い": 3749,
      "▁周囲": 3750,
      "▁豆": 3751,
      "▁訓": 3752,
      "pt": 3753,
      "らっ": 3754,
      "▁始まり": 3755,
      "▁悲": 3756,
      "▁以内": 3757,
      "▁男子": 3758,
      "▁向か": 3759,
      "▁華": 3760,
      "▁縁": 3761,
      "▁メモ": 3762,
      "▁立て": 3763,
      "▁ネットワーク": 3764,
      "▁こん": 3765,
      "▁控": 3766,
      "▁停止": 3767,
      "▁{": 3768,
      "▁いっぱい": 3769,
      "ウル": 3770,
      "▁ロンドン": 3771,
      "▁菓": 3772,
      "▁題": 3773,
      "▁豊富": 3774,
      "▁報道": 3775,
      "ile": 3776,
      "▁性格": 3777,
      "▁集中": 3778,
      "▁品質": 3779,
      "▁not": 3780,
      "▁wind": 3781,
      "▁man": 3782,
      "▁貨": 3783,
      "▁透": 3784,
      "▁墓": 3785,
      "▁教室": 3786,
      "▁186": 3787,
      "▁組合": 3788,
      "▁よかっ": 3789,
      "▁核": 3790,
      "▁回復": 3791,
      "▁床": 3792,
      "▁衆": 3793,
      "▁1996": 3794,
      "▁医師": 3795,
      "▁ゾ": 3796,
      "▁明る": 3797,
      "▁硬": 3798,
      "クロ": 3799,
      "▁置き": 3800,
      "▁飾": 3801,
      "▁供給": 3802,
      "uc": 3803,
      "ロール": 3804,
      "▁震": 3805,
      "▁理論": 3806,
      "▁落と": 3807,
      "500": 3808,
      "▁メッセージ": 3809,
      "▁卵": 3810,
      "▁菓子": 3811,
      "▁人民": 3812,
      "ave": 3813,
      "▁添": 3814,
      "▁楽天": 3815,
      "▁カフェ": 3816,
      "▁元気": 3817,
      "▁福島": 3818,
      "▁コーチ": 3819,
      "▁要求": 3820,
      "▁債": 3821,
      "▁収納": 3822,
      "▁感覚": 3823,
      "▁炎": 3824,
      "ome": 3825,
      "▁金属": 3826,
      "▁パワー": 3827,
      "ジット": 3828,
      "▁クー": 3829,
      "▁ペン": 3830,
      "イルス": 3831,
      "▁銃": 3832,
      "▁綺麗": 3833,
      "▁過ごし": 3834,
      "▁本部": 3835,
      "ヒー": 3836,
      "合っ": 3837,
      "▁me": 3838,
      "▁出会い": 3839,
      "▁系統": 3840,
      "▁肩": 3841,
      "▁少女": 3842,
      "▁婚": 3843,
      "トン": 3844,
      "▁いれ": 3845,
      "▁提出": 3846,
      "▁撃": 3847,
      "▁女優": 3848,
      "▁届け": 3849,
      "太郎": 3850,
      "▁至る": 3851,
      "▁1995": 3852,
      "▁選ん": 3853,
      "▁将来": 3854,
      "▁輝": 3855,
      "▁置か": 3856,
      "▁地上": 3857,
      "▁次第": 3858,
      "▁有する": 3859,
      "▁機構": 3860,
      "▁出力": 3861,
      "▁上昇": 3862,
      "▁病気": 3863,
      "▁勧め": 3864,
      "▁飼": 3865,
      "ace": 3866,
      "▁全部": 3867,
      "▁付い": 3868,
      "▁しょう": 3869,
      "br": 3870,
      "ign": 3871,
      "▁おも": 3872,
      "▁レビュー": 3873,
      ").": 3874,
      "▁集団": 3875,
      "▁だい": 3876,
      "▁ww": 3877,
      "▁直後": 3878,
      "▁龍": 3879,
      "▁東北": 3880,
      "▁しばらく": 3881,
      "▁困難": 3882,
      "▁もん": 3883,
      "▁優れ": 3884,
      "▁ランド": 3885,
      "▁認定": 3886,
      "▁formula": 3887,
      "▁分け": 3888,
      "▁寿": 3889,
      "▁哲": 3890,
      "▁辺": 3891,
      "▁効率": 3892,
      "▁訪れ": 3893,
      "▁大量": 3894,
      "エン": 3895,
      "▁あたる": 3896,
      "▁素敵": 3897,
      "▁財布": 3898,
      "▁値段": 3899,
      "erv": 3900,
      "▁gr": 3901,
      "▁陽": 3902,
      "▁胸": 3903,
      "▁ハード": 3904,
      "ランダ": 3905,
      "ウント": 3906,
      "ウェー": 3907,
      "▁瞬": 3908,
      "▁処分": 3909,
      "▁蒸": 3910,
      "▁動作": 3911,
      "▁さえ": 3912,
      "▁温度": 3913,
      "ファー": 3914,
      "▁オール": 3915,
      "▁日常": 3916,
      "▁定め": 3917,
      "1.": 3918,
      "act": 3919,
      "2.": 3920,
      "▁かわい": 3921,
      "もと": 3922,
      "▁積極": 3923,
      "▁粉": 3924,
      "▁ヒット": 3925,
      "ta": 3926,
      "ps": 3927,
      "▁当日": 3928,
      "▁アンド": 3929,
      "und": 3930,
      "▁同社": 3931,
      "▁変わら": 3932,
      "▁まあ": 3933,
      "▁物質": 3934,
      "▁証明": 3935,
      "▁矢": 3936,
      "▁授業": 3937,
      "▁↓": 3938,
      "▁伯": 3939,
      "▁ピアノ": 3940,
      "▁珍": 3941,
      "▁司令": 3942,
      "▁国道": 3943,
      "35": 3944,
      "ブリ": 3945,
      "▁乾燥": 3946,
      "▁すごく": 3947,
      "▁うまく": 3948,
      "の子": 3949,
      "▁戦後": 3950,
      "▁履": 3951,
      "▁あい": 3952,
      "▁脂": 3953,
      "▁外壁": 3954,
      "▁争": 3955,
      "▁演出": 3956,
      "フル": 3957,
      "▁外部": 3958,
      "▁長野": 3959,
      "▁神経": 3960,
      "▁シル": 3961,
      "▁原作": 3962,
      "▁転職": 3963,
      "▁杯": 3964,
      "▁率い": 3965,
      "▁眼": 3966,
      "▁翻": 3967,
      "▁奇": 3968,
      "▁こだ": 3969,
      "ポン": 3970,
      "▁ナイ": 3971,
      "▁使える": 3972,
      "▁キャリア": 3973,
      "パート": 3974,
      "▁ダン": 3975,
      "▁事前": 3976,
      "▁レストラン": 3977,
      "▁伸び": 3978,
      "▁朝日": 3979,
      "▁ちゃんと": 3980,
      "▁知る": 3981,
      "つい": 3982,
      "▁大好き": 3983,
      "ox": 3984,
      "▁バージョン": 3985,
      "▁農業": 3986,
      "▁ダイヤ": 3987,
      "▁超え": 3988,
      "▁わかる": 3989,
      "チン": 3990,
      "▁本社": 3991,
      "▁いち": 3992,
      "▁2)": 3993,
      "▁ママ": 3994,
      "▁https": 3995,
      "▁努力": 3996,
      "▁介護": 3997,
      "▁下記": 3998,
      "ールズ": 3999,
      "▁ワイン": 4000,
      "▁一定": 4001,
      "▁泣": 4002,
      "▁里": 4003,
      "▁シャツ": 4004,
      "▁グラン": 4005,
      "▁1994": 4006,
      "▁豪": 4007,
      "▁わかっ": 4008,
      "▁季節": 4009,
      "▁ガラス": 4010,
      "▁鏡": 4011,
      "▁ルート": 4012,
      "▁促": 4013,
      "▁ed": 4014,
      "なし": 4015,
      "▁破壊": 4016,
      "▁宗教": 4017,
      "▁立場": 4018,
      "▁保育": 4019,
      "▁グリ": 4020,
      "▁すぎる": 4021,
      "▁未来": 4022,
      "bl": 4023,
      "▁遊び": 4024,
      "▁軍事": 4025,
      "▁なに": 4026,
      "ブン": 4027,
      "ical": 4028,
      "▁ガン": 4029,
      "▁本体": 4030,
      "▁tv": 4031,
      "▁シンプル": 4032,
      "▁ルール": 4033,
      "ワード": 4034,
      "▁項目": 4035,
      "▁詳しく": 4036,
      "▁兵庫": 4037,
      "▁呼ぶ": 4038,
      "▁—": 4039,
      "▁いただく": 4040,
      "▁af": 4041,
      "▁防衛": 4042,
      "▁リスク": 4043,
      "▁札幌": 4044,
      "▁郷": 4045,
      "▁39": 4046,
      "▁太平": 4047,
      "▁lt": 4048,
      "▁カナダ": 4049,
      "ww": 4050,
      "▁ic": 4051,
      "▁詰": 4052,
      "▁香り": 4053,
      "▁大手": 4054,
      "▁掃": 4055,
      "ストン": 4056,
      "▁内閣": 4057,
      "na": 4058,
      "▁与える": 4059,
      "▁推進": 4060,
      "▁庭": 4061,
      "▁もた": 4062,
      "man": 4063,
      "▁わずか": 4064,
      "▁送り": 4065,
      "ick": 4066,
      "▁視聴": 4067,
      "▁統一": 4068,
      "▁徹": 4069,
      "▁完了": 4070,
      "▁レコード": 4071,
      "▁医学": 4072,
      "▁亜": 4073,
      "▁現地": 4074,
      "クラ": 4075,
      "▁通っ": 4076,
      "▁コスト": 4077,
      "▁フォー": 4078,
      "▁いわゆる": 4079,
      "▁繁": 4080,
      "27": 4081,
      "▁ポジション": 4082,
      "▁グリーン": 4083,
      "▁去": 4084,
      "26": 4085,
      "▁悩み": 4086,
      "▁か月": 4087,
      "▁させ": 4088,
      "▁風呂": 4089,
      "▁宅": 4090,
      "▁郵便": 4091,
      ");": 4092,
      "▁周年": 4093,
      "▁気分": 4094,
      "バン": 4095,
      "ty": 4096,
      "▁ブロック": 4097,
      "▁ルー": 4098,
      "▁カウン": 4099,
      "▁バン": 4100,
      "▁up": 4101,
      "▁名誉": 4102,
      "▁乳": 4103,
      "▁抵": 4104,
      "▁抜け": 4105,
      "▁是非": 4106,
      "▁判定": 4107,
      "▁緩": 4108,
      "▁繰り返し": 4109,
      "▁レス": 4110,
      "▁封": 4111,
      "▁本格": 4112,
      "▁1960": 4113,
      "▁ゲスト": 4114,
      "28": 4115,
      "▁残念": 4116,
      "▁北部": 4117,
      "ウィ": 4118,
      "▁復活": 4119,
      "▁美しい": 4120,
      "▁艦隊": 4121,
      "int": 4122,
      "スタン": 4123,
      "▁改革": 4124,
      "▁スマート": 4125,
      "▁差し": 4126,
      "▁網": 4127,
      "▁多かっ": 4128,
      "▁民族": 4129,
      "▁特殊": 4130,
      "▁貯": 4131,
      "▁限ら": 4132,
      "▁ウイルス": 4133,
      "▁穴": 4134,
      "▁革命": 4135,
      "▁拒": 4136,
      "やし": 4137,
      "▁1993": 4138,
      "▁1992": 4139,
      "▁ヘル": 4140,
      "▁サイド": 4141,
      "揚げ": 4142,
      "▁can": 4143,
      "▁現れ": 4144,
      "▁支払い": 4145,
      "▁学園": 4146,
      "▁\\": 4147,
      "▁主演": 4148,
      "▁探す": 4149,
      "エスト": 4150,
      "▁交渉": 4151,
      "▁コーヒー": 4152,
      "▁防止": 4153,
      "▁深い": 4154,
      "シェ": 4155,
      "▁泊": 4156,
      "=\"": 4157,
      "▁滑": 4158,
      "▁玄": 4159,
      "▁巻き": 4160,
      "▁尊": 4161,
      "▁im": 4162,
      "▁インタ": 4163,
      "▁隣接": 4164,
      "ase": 4165,
      "▁悪く": 4166,
      "▁書く": 4167,
      "っこ": 4168,
      "▁アト": 4169,
      "▁かかっ": 4170,
      "▁死亡": 4171,
      "▁使え": 4172,
      "▁講師": 4173,
      "ッター": 4174,
      "▁診断": 4175,
      "▁唐": 4176,
      "▁フライ": 4177,
      "▁よろしく": 4178,
      "▁射": 4179,
      "▁テーブル": 4180,
      "▁筆": 4181,
      "▁ヘッド": 4182,
      "▁ハンド": 4183,
      "▁優秀": 4184,
      "▁雇": 4185,
      "▁合格": 4186,
      "▁本線": 4187,
      "立つ": 4188,
      "▁やや": 4189,
      "▁安く": 4190,
      "▁栄養": 4191,
      "▁眠": 4192,
      "▁当社": 4193,
      "▁午前": 4194,
      "ーネ": 4195,
      "▁訓練": 4196,
      "▁没": 4197,
      "▁沈": 4198,
      "▁兄弟": 4199,
      "▁ショー": 4200,
      "立ち": 4201,
      "▁ナン": 4202,
      "▁鑑": 4203,
      "▁46": 4204,
      "▁申請": 4205,
      "▁首相": 4206,
      "▁条約": 4207,
      "▁掛け": 4208,
      "▁勇": 4209,
      "合う": 4210,
      "▁48": 4211,
      "▁重ね": 4212,
      "▁輪": 4213,
      "ey": 4214,
      "▁ag": 4215,
      "▁ブリ": 4216,
      "▁ダイエット": 4217,
      "ガル": 4218,
      "▁ご覧": 4219,
      "▁本日": 4220,
      "▁印刷": 4221,
      "▁つか": 4222,
      "▁現役": 4223,
      "▁仕方": 4224,
      "▁走行": 4225,
      "▁1991": 4226,
      "▁懸": 4227,
      "▁贈": 4228,
      "ath": 4229,
      "▁ロード": 4230,
      "▁務める": 4231,
      "▁囲": 4232,
      "▁マイク": 4233,
      "▁マス": 4234,
      "▁恋愛": 4235,
      "▁windows": 4236,
      "▁通過": 4237,
      "▁低下": 4238,
      "▁刊": 4239,
      "▁主催": 4240,
      "▁オーストラ": 4241,
      "▁スプ": 4242,
      "ダン": 4243,
      "▁父親": 4244,
      "▁起こし": 4245,
      "▁キリスト": 4246,
      "▁系列": 4247,
      "▁気軽": 4248,
      "▁fl": 4249,
      "▁ドア": 4250,
      "▁ベッド": 4251,
      "▁ぎ": 4252,
      "▁まる": 4253,
      "▁とに": 4254,
      "▁暮らし": 4255,
      "▁間違い": 4256,
      "ディー": 4257,
      "ns": 4258,
      "▁43": 4259,
      "▁敗れ": 4260,
      "▁熊本": 4261,
      "出さ": 4262,
      "直し": 4263,
      "▁コンピュータ": 4264,
      "▁商業": 4265,
      "▁ゴルフ": 4266,
      "▁レディース": 4267,
      "▁頻": 4268,
      "▁署": 4269,
      "▁ラーメン": 4270,
      "▁買う": 4271,
      "▁宣言": 4272,
      "▁発言": 4273,
      "パス": 4274,
      "▁移転": 4275,
      "▁オーストラリア": 4276,
      "▁小学": 4277,
      "▁山口": 4278,
      "▁置く": 4279,
      "▁博物": 4280,
      "▁決まっ": 4281,
      "▁けん": 4282,
      "▁戦略": 4283,
      "▁分離": 4284,
      "29": 4285,
      "▁サロン": 4286,
      "▁実績": 4287,
      "▁寛": 4288,
      "▁44": 4289,
      "▁延長": 4290,
      "▁かん": 4291,
      "▁レギュ": 4292,
      "▁1989": 4293,
      "to": 4294,
      "▁ゆっくり": 4295,
      "▁預": 4296,
      "ペーン": 4297,
      "▁55": 4298,
      "▁形状": 4299,
      "▁メンズ": 4300,
      "▁ノー": 4301,
      "▁向かう": 4302,
      "▁リング": 4303,
      "▁生まれる": 4304,
      "▁腹": 4305,
      "▁高級": 4306,
      "▁おそ": 4307,
      "▁許可": 4308,
      "▁we": 4309,
      "▁とにかく": 4310,
      ":30": 4311,
      "▁─": 4312,
      "ほど": 4313,
      "▁経由": 4314,
      "▁one": 4315,
      "▁各種": 4316,
      "▁落ち着": 4317,
      "▁きっと": 4318,
      "▁ポー": 4319,
      "ous": 4320,
      "▁予算": 4321,
      "▁奈良": 4322,
      "▁才": 4323,
      "▁;": 4324,
      "▁迫": 4325,
      "for": 4326,
      "▁牧": 4327,
      "▁売る": 4328,
      "▁変わり": 4329,
      "ans": 4330,
      "▁素晴らしい": 4331,
      "▁アイドル": 4332,
      "ッカ": 4333,
      "▁ガー": 4334,
      "▁ac": 4335,
      "▁長期": 4336,
      "▁不可": 4337,
      "▁post": 4338,
      "▁測定": 4339,
      "取っ": 4340,
      "▁鹿児": 4341,
      "▁原子": 4342,
      "▁中継": 4343,
      "▁テク": 4344,
      "▁鹿児島": 4345,
      "▁剣": 4346,
      "▁クレジット": 4347,
      "▁クリア": 4348,
      "▁ケーキ": 4349,
      "▁感情": 4350,
      "ーブ": 4351,
      "▁織": 4352,
      "▁勢力": 4353,
      "▁住ん": 4354,
      "▁箇": 4355,
      "▁基地": 4356,
      "ッタ": 4357,
      "▁趣味": 4358,
      "▁すごい": 4359,
      "▁岡山": 4360,
      "▁キャンペーン": 4361,
      "▁滞": 4362,
      "▁アマ": 4363,
      "▁創設": 4364,
      "fl": 4365,
      "▁キッチ": 4366,
      "ティック": 4367,
      "ワイ": 4368,
      "▁予選": 4369,
      "▁霊": 4370,
      "▁言える": 4371,
      "▁トゥ": 4372,
      "▁たかっ": 4373,
      "ition": 4374,
      "▁左右": 4375,
      "▁観測": 4376,
      "ロット": 4377,
      "▁オフィ": 4378,
      "▁腰": 4379,
      "▁奉": 4380,
      "▁dr": 4381,
      "▁per": 4382,
      "▁シュー": 4383,
      "▁岐": 4384,
      "▁ダンス": 4385,
      "▁がっ": 4386,
      "▁ホル": 4387,
      "▁文書": 4388,
      "▁化粧": 4389,
      "▁痛み": 4390,
      "▁偽": 4391,
      "▁雲": 4392,
      "apan": 4393,
      "▁メリット": 4394,
      "36": 4395,
      "▁ダメ": 4396,
      "▁方針": 4397,
      "ヤー": 4398,
      "▁古代": 4399,
      "ブルク": 4400,
      "▁著作": 4401,
      "▁像": 4402,
      "▁欧州": 4403,
      "▁カテ": 4404,
      "ショナル": 4405,
      "▁part": 4406,
      "▁違っ": 4407,
      "ルタ": 4408,
      "out": 4409,
      "▁同士": 4410,
      "bc": 4411,
      "▁職員": 4412,
      "▁っぽ": 4413,
      "▁待っ": 4414,
      "▁タイミング": 4415,
      "べる": 4416,
      "▁inter": 4417,
      "▁スピード": 4418,
      "▁我が": 4419,
      "uk": 4420,
      "▁》": 4421,
      "▁怖": 4422,
      "▁稲": 4423,
      "ll": 4424,
      "▁ポリ": 4425,
      "▁長崎": 4426,
      "▁《": 4427,
      "▁頑張っ": 4428,
      "▁披": 4429,
      "der": 4430,
      "▁孫": 4431,
      "▁後ろ": 4432,
      "▁鳴": 4433,
      "ジル": 4434,
      "▁コロナ": 4435,
      "えず": 4436,
      "▁晴": 4437,
      "▁暖": 4438,
      "▁天然": 4439,
      "ai": 4440,
      "▁半分": 4441,
      "▁つもり": 4442,
      "▁縦": 4443,
      "▁なあ": 4444,
      "ダム": 4445,
      "▁トラブル": 4446,
      "▁止め": 4447,
      "▁生じ": 4448,
      "▁徐": 4449,
      "▁あろう": 4450,
      "▁宿泊": 4451,
      "▁ころ": 4452,
      "▁仙台": 4453,
      "▁おお": 4454,
      "▁信じ": 4455,
      "▁求める": 4456,
      "▁策": 4457,
      "▁充実": 4458,
      "▁送っ": 4459,
      "▁正確": 4460,
      "まら": 4461,
      "▁ぴ": 4462,
      "ft": 4463,
      "▁ガイド": 4464,
      "▁紫": 4465,
      "▁ダム": 4466,
      "▁ストレス": 4467,
      "▁咲": 4468,
      "▁鎮": 4469,
      "▁貼": 4470,
      "47": 4471,
      "▁惑": 4472,
      "▁ne": 4473,
      "▁将軍": 4474,
      "▁デイ": 4475,
      "▁面白い": 4476,
      "▁テキ": 4477,
      "▁象": 4478,
      "▁聞く": 4479,
      "▁母親": 4480,
      "▁あん": 4481,
      "▁看護": 4482,
      "ったり": 4483,
      "▁がん": 4484,
      "ロス": 4485,
      "▁王座": 4486,
      "▁ステップ": 4487,
      "▁ファミ": 4488,
      "▁ウェブ": 4489,
      "▁ダブル": 4490,
      "▁進行": 4491,
      "▁亡く": 4492,
      "▁しゃ": 4493,
      "▁ip": 4494,
      "▁継承": 4495,
      "hen": 4496,
      "▁想像": 4497,
      "▁議論": 4498,
      "▁持た": 4499,
      "▁丁寧": 4500,
      ",\"": 4501,
      "▁手続き": 4502,
      "▁分か": 4503,
      "▁歩い": 4504,
      "▁キッチン": 4505,
      "▁陥": 4506,
      "▁帰り": 4507,
      "▁姿勢": 4508,
      "▁載": 4509,
      "▁開設": 4510,
      "▁隻": 4511,
      "▁早い": 4512,
      "ss": 4513,
      "コール": 4514,
      "捨て": 4515,
      "▁首都": 4516,
      "▁かかり": 4517,
      "▁普及": 4518,
      "▁ミュージック": 4519,
      "▁イング": 4520,
      "▁1988": 4521,
      "▁漁": 4522,
      "▁日曜": 4523,
      "▁イラスト": 4524,
      "▁昨年": 4525,
      "▁護": 4526,
      "▁架": 4527,
      "▁シティ": 4528,
      "▁sm": 4529,
      "▁〉": 4530,
      "▁手術": 4531,
      "イア": 4532,
      "▁公共": 4533,
      "▁中止": 4534,
      "▁抵抗": 4535,
      "▁メダル": 4536,
      "▁しばし": 4537,
      "▁扱い": 4538,
      "▁基づい": 4539,
      "▁評判": 4540,
      "▁イエ": 4541,
      "ink": 4542,
      "▁倉": 4543,
      "▁往": 4544,
      "▁披露": 4545,
      "▁オイル": 4546,
      "▁冒": 4547,
      "▁off": 4548,
      "▁ペット": 4549,
      "▁靴": 4550,
      "▁権利": 4551,
      "▁規制": 4552,
      "▁表す": 4553,
      "▁エピ": 4554,
      "▁思え": 4555,
      "▁最適": 4556,
      "▁用いる": 4557,
      "ピオン": 4558,
      "▁〈": 4559,
      "▁投手": 4560,
      "マト": 4561,
      "▁飯": 4562,
      "▁県立": 4563,
      "▁ソー": 4564,
      "▁前回": 4565,
      "ock": 4566,
      "▁フィリ": 4567,
      "▁県道": 4568,
      "▁レギュラー": 4569,
      "▁アーティ": 4570,
      "▁リア": 4571,
      "▁くださ": 4572,
      "▁ダウンロード": 4573,
      "▁取り組": 4574,
      "▁染": 4575,
      "37": 4576,
      "▁一切": 4577,
      "▁スキル": 4578,
      "▁アス": 4579,
      "▁共有": 4580,
      "▁アイス": 4581,
      "▁尽": 4582,
      "分け": 4583,
      "▁鬼": 4584,
      "▁知事": 4585,
      "ジン": 4586,
      "▁助け": 4587,
      "▁トラン": 4588,
      "▁ライフ": 4589,
      "▁きれい": 4590,
      "ress": 4591,
      "▁事情": 4592,
      "▁分布": 4593,
      "▁とりあ": 4594,
      "▁税込": 4595,
      "▁軌道": 4596,
      "▁分かっ": 4597,
      "oh": 4598,
      "▁はい": 4599,
      "▁オペ": 4600,
      "▁遅れ": 4601,
      "▁帰国": 4602,
      "ens": 4603,
      "▁地名": 4604,
      "▁}": 4605,
      "▁前半": 4606,
      "▁ちゃう": 4607,
      "▁紀元": 4608,
      "ばし": 4609,
      "▁最低": 4610,
      "▁歓": 4611,
      "クル": 4612,
      "▁げ": 4613,
      "▁揃": 4614,
      "▁アフリカ": 4615,
      "▁今度": 4616,
      "▁セミ": 4617,
      "▁生成": 4618,
      "▁暑": 4619,
      "▁150": 4620,
      "▁パック": 4621,
      "▁姓": 4622,
      "▁グレ": 4623,
      "▁氷": 4624,
      "▁終え": 4625,
      "ビン": 4626,
      "www": 4627,
      "▁レッド": 4628,
      "▁play": 4629,
      "▁09": 4630,
      "▁姫": 4631,
      "▁ur": 4632,
      "▁パーク": 4633,
      "▁了承": 4634,
      "▁180": 4635,
      "シック": 4636,
      "ba": 4637,
      "▁ソース": 4638,
      "▁アート": 4639,
      "▁除く": 4640,
      "▁参戦": 4641,
      "そも": 4642,
      "ログ": 4643,
      "▁生地": 4644,
      "▁開い": 4645,
      "▁流行": 4646,
      "▁立っ": 4647,
      "▁喫": 4648,
      "▁違反": 4649,
      "▁冊": 4650,
      "ree": 4651,
      "▁可愛い": 4652,
      "▁$": 4653,
      "▁浦": 4654,
      "▁メル": 4655,
      "▁パターン": 4656,
      "▁超える": 4657,
      "▁児童": 4658,
      "▁受験": 4659,
      "▁そも": 4660,
      "▁そもそも": 4661,
      "▁res": 4662,
      "▁新規": 4663,
      "▁因": 4664,
      "38": 4665,
      "▁1987": 4666,
      "なわち": 4667,
      "▁すなわち": 4668,
      "▁歌手": 4669,
      "▁モー": 4670,
      "▁浸": 4671,
      "▁否定": 4672,
      "▁競走": 4673,
      "上がっ": 4674,
      "▁ちゃっ": 4675,
      "▁小型": 4676,
      "oy": 4677,
      "▁大幅": 4678,
      "▁箇所": 4679,
      "▁岐阜": 4680,
      "▁土曜": 4681,
      "▁進む": 4682,
      "▁メジャー": 4683,
      "▁cr": 4684,
      "ark": 4685,
      "▁同一": 4686,
      "▁幾": 4687,
      "▁うえ": 4688,
      "ッコ": 4689,
      "▁粒": 4690,
      "▁惑星": 4691,
      "▁積み": 4692,
      "▁補助": 4693,
      "▁当該": 4694,
      "▁進学": 4695,
      "▁`": 4696,
      "▁テン": 4697,
      "▁先日": 4698,
      "▁翻訳": 4699,
      "▁取る": 4700,
      "▁dis": 4701,
      "ぷり": 4702,
      "ult": 4703,
      "▁晩": 4704,
      "▁始まる": 4705,
      "▁平和": 4706,
      "▁オランダ": 4707,
      "▁貴族": 4708,
      "▁結ぶ": 4709,
      "▁勝手": 4710,
      "▁きち": 4711,
      "▁海岸": 4712,
      "▁誇": 4713,
      "▁カレー": 4714,
      "▁薬剤": 4715,
      "▁旗": 4716,
      "▁ラグ": 4717,
      "46": 4718,
      "▁芸能": 4719,
      "▁has": 4720,
      "99": 4721,
      "▁新型": 4722,
      "▁新宿": 4723,
      "▁もらえ": 4724,
      "▁瞬間": 4725,
      "▁ミス": 4726,
      "ニス": 4727,
      "上げる": 4728,
      "おう": 4729,
      "▁ブレー": 4730,
      "▁幅広": 4731,
      "▁コンテン": 4732,
      "ky": 4733,
      "込め": 4734,
      "▁47": 4735,
      "▁とりあえず": 4736,
      "かす": 4737,
      "▁適切": 4738,
      "▁当選": 4739,
      "▁体重": 4740,
      "▁場面": 4741,
      "▁指示": 4742,
      "▁袋": 4743,
      "▁日記": 4744,
      "▁多様": 4745,
      "▁命令": 4746,
      "▁同盟": 4747,
      "▁災": 4748,
      "▁my": 4749,
      "▁まぁ": 4750,
      "▁原則": 4751,
      "▁トレーニング": 4752,
      "▁壊": 4753,
      "ern": 4754,
      "▁憲法": 4755,
      "▁改造": 4756,
      "▁取り扱": 4757,
      "100": 4758,
      "キン": 4759,
      "▁pre": 4760,
      "▁ソフトウェア": 4761,
      "▁奴": 4762,
      "▁魔法": 4763,
      "eet": 4764,
      "▁再開": 4765,
      "▁確実": 4766,
      "▁罪": 4767,
      "▁移行": 4768,
      "▁ご飯": 4769,
      "▁昇格": 4770,
      "▁療": 4771,
      "▁休み": 4772,
      "▁得意": 4773,
      "▁コム": 4774,
      "▁逃げ": 4775,
      "▁ジョージ": 4776,
      "▁指名": 4777,
      "▁400": 4778,
      "▁旨": 4779,
      "▁ビール": 4780,
      "▁アリ": 4781,
      "1)": 4782,
      "▁近代": 4783,
      "▁騒": 4784,
      "▁両方": 4785,
      "▁解散": 4786,
      "▁オス": 4787,
      "▁切れ": 4788,
      "▁バレ": 4789,
      "▁世帯": 4790,
      "ナム": 4791,
      "▁1986": 4792,
      "▁誠": 4793,
      "▁働い": 4794,
      "▁大陸": 4795,
      "▁人数": 4796,
      "▁職場": 4797,
      "セント": 4798,
      "▁08": 4799,
      "ッスン": 4800,
      "▁構築": 4801,
      "▁事項": 4802,
      "▁雄": 4803,
      "やく": 4804,
      "▁エイ": 4805,
      "▁ランチ": 4806,
      "▁覆": 4807,
      "▁該": 4808,
      "▁入社": 4809,
      "▁方々": 4810,
      "▁数多": 4811,
      "▁連盟": 4812,
      "▁ギター": 4813,
      "▁一体": 4814,
      "▁em": 4815,
      "▁域": 4816,
      "▁盗": 4817,
      "▁プレイヤー": 4818,
      "▁芝": 4819,
      "▁優先": 4820,
      "▁がち": 4821,
      "▁出典": 4822,
      "▁住所": 4823,
      "ルコ": 4824,
      "▁抑え": 4825,
      "▁ジャパン": 4826,
      "▁とおり": 4827,
      "▁鎌": 4828,
      "▁1985": 4829,
      "▁物理": 4830,
      "▁妊": 4831,
      "▁なんか": 4832,
      "▁露": 4833,
      "||0": 4834,
      "▁冠": 4835,
      "▁意外": 4836,
      "▁研修": 4837,
      "▁荷物": 4838,
      "▁笑顔": 4839,
      "▁ツール": 4840,
      "▁チャンピオン": 4841,
      "▁フジ": 4842,
      "グラ": 4843,
      "▁上位": 4844,
      "ual": 4845,
      "▁留学": 4846,
      "****": 4847,
      "▁コート": 4848,
      "▁分割": 4849,
      "▁幹線": 4850,
      "ence": 4851,
      "▁先輩": 4852,
      "co": 4853,
      "思議": 4854,
      "▁目指す": 4855,
      "▁スクール": 4856,
      "▁クロス": 4857,
      "▁事態": 4858,
      "▁快適": 4859,
      "ata": 4860,
      "▁輸入": 4861,
      "▁感想": 4862,
      "▁功": 4863,
      "▁かかわら": 4864,
      "▁mus": 4865,
      "▁飲ん": 4866,
      "▁手法": 4867,
      "ニュ": 4868,
      "▁ピンク": 4869,
      "より": 4870,
      "▁刊行": 4871,
      "▁従っ": 4872,
      "ont": 4873,
      "▁ルーム": 4874,
      "▁07": 4875,
      "▁共産": 4876,
      "▁武器": 4877,
      "プション": 4878,
      "▁rec": 4879,
      "▁カテゴ": 4880,
      "▁好み": 4881,
      "▁sy": 4882,
      "▁吸収": 4883,
      "own": 4884,
      "▁クライ": 4885,
      "▁数字": 4886,
      "▁op": 4887,
      "▁スープ": 4888,
      "▁いろんな": 4889,
      "▁ツイ": 4890,
      "▁変わる": 4891,
      "▁掃除": 4892,
      "▁des": 4893,
      "▁変換": 4894,
      "起こ": 4895,
      "▁イオン": 4896,
      "▁頂い": 4897,
      "gle": 4898,
      "▁明確": 4899,
      "▁略歴": 4900,
      "▁アーティスト": 4901,
      "▁麺": 4902,
      "▁しばしば": 4903,
      "▁捜": 4904,
      "▁年頃": 4905,
      "カン": 4906,
      "ントリー": 4907,
      "ノー": 4908,
      "リアム": 4909,
      "▁施行": 4910,
      "▁カタ": 4911,
      "▁バンク": 4912,
      "▁半島": 4913,
      "▁修正": 4914,
      "▁資産": 4915,
      "▁プレミア": 4916,
      "39": 4917,
      "▁comm": 4918,
      "▁概念": 4919,
      "▁笑い": 4920,
      "▁発送": 4921,
      "がけ": 4922,
      "▁日付": 4923,
      "▁ソロ": 4924,
      "▁脚本": 4925,
      "▁繊": 4926,
      "▁42": 4927,
      "49": 4928,
      "▁é": 4929,
      "▁不思議": 4930,
      "▁収め": 4931,
      "▁さす": 4932,
      "▁レッスン": 4933,
      "▁術": 4934,
      "ank": 4935,
      "▁オート": 4936,
      "ミュ": 4937,
      "▁75": 4938,
      "▁レシ": 4939,
      "3%": 4940,
      "▁陰": 4941,
      "▁指す": 4942,
      "▁投げ": 4943,
      "▁拡張": 4944,
      "▁セント": 4945,
      "▁出発": 4946,
      "まだ": 4947,
      "▁たとえば": 4948,
      "▁学び": 4949,
      "▁翌日": 4950,
      "▁楽器": 4951,
      "▁ルイ": 4952,
      "▁声優": 4953,
      "▁豊か": 4954,
      "▁開幕": 4955,
      "▁コンテンツ": 4956,
      "▁隆": 4957,
      "▁干": 4958,
      "▁合成": 4959,
      "▁重量": 4960,
      "▁全然": 4961,
      "▁マッチ": 4962,
      "▁燃料": 4963,
      "まい": 4964,
      "▁傘": 4965,
      "▁降り": 4966,
      "▁05": 4967,
      "ren": 4968,
      "ext": 4969,
      "▁クリスマス": 4970,
      "able": 4971,
      "oll": 4972,
      "▁ap": 4973,
      "▁厳しい": 4974,
      "▁掛": 4975,
      "▁鉱": 4976,
      "▁ind": 4977,
      "▁ロボ": 4978,
      "▁活性": 4979,
      "▁両親": 4980,
      "▁連携": 4981,
      "▁数多く": 4982,
      "▁民間": 4983,
      "▁汚れ": 4984,
      "▁予防": 4985,
      "▁残る": 4986,
      "つき": 4987,
      "▁́": 4988,
      "▁工学": 4989,
      "スティ": 4990,
      "▁聞か": 4991,
      "▁元々": 4992,
      "ance": 4993,
      "▁ネタ": 4994,
      "▁ソ連": 4995,
      "▁01": 4996,
      "▁逮": 4997,
      "ゾン": 4998,
      "▁ロング": 4999,
      "▁which": 5000,
      "▁逮捕": 5001,
      "ークス": 5002,
      "▁遺伝": 5003,
      "▁やめ": 5004,
      "▁di": 5005,
      "▁送信": 5006,
      "▁心理": 5007,
      "▁1984": 5008,
      "▁もともと": 5009,
      "▁まったく": 5010,
      "▁糖": 5011,
      "くま": 5012,
      "▁楽しく": 5013,
      "-6": 5014,
      "▁楽しむ": 5015,
      "▁amaz": 5016,
      "▁キング": 5017,
      "フォーマ": 5018,
      "▁ニコ": 5019,
      "▁were": 5020,
      "ep": 5021,
      "▁so": 5022,
      "▁her": 5023,
      "▁長男": 5024,
      "▁マイル": 5025,
      "▁185": 5026,
      "▁祈": 5027,
      "▁交差": 5028,
      "▁3,": 5029,
      "らっしゃ": 5030,
      "▁伴う": 5031,
      "▁福祉": 5032,
      "ove": 5033,
      "▁守る": 5034,
      "▁鶴": 5035,
      "▁1950": 5036,
      "▁学ん": 5037,
      "ッシング": 5038,
      "▁丘": 5039,
      "▁自信": 5040,
      "▁底": 5041,
      "▁ボックス": 5042,
      "ash": 5043,
      "▁抽": 5044,
      "ろし": 5045,
      "sc": 5046,
      "▁鼻": 5047,
      "▁サブ": 5048,
      "▁コミュニケーション": 5049,
      "31": 5050,
      "▁直前": 5051,
      "▁酵": 5052,
      "▁通称": 5053,
      "▁酸化": 5054,
      "▁防御": 5055,
      "▁表し": 5056,
      "▁湿": 5057,
      "▁確定": 5058,
      "view": 5059,
      "▁出さ": 5060,
      "▁現象": 5061,
      "▁ユダ": 5062,
      "▁善": 5063,
      "▁フレーム": 5064,
      "▁呼ん": 5065,
      "ソード": 5066,
      "▁弘": 5067,
      "▁豚": 5068,
      "▁夫婦": 5069,
      "▁模様": 5070,
      "▁竜": 5071,
      "44": 5072,
      "▁生命": 5073,
      "▁cont": 5074,
      "▁つける": 5075,
      "▁フィン": 5076,
      "▁皇帝": 5077,
      "▁突然": 5078,
      "▁どんど": 5079,
      "▁承認": 5080,
      "▁120": 5081,
      "▁エク": 5082,
      "▁地図": 5083,
      "▁コマ": 5084,
      "▁秋田": 5085,
      "▁集合": 5086,
      "▁65": 5087,
      "▁受付": 5088,
      "ount": 5089,
      "▁初回": 5090,
      "スプ": 5091,
      "▁働く": 5092,
      "ンサー": 5093,
      "▁そば": 5094,
      "▁前年": 5095,
      "ational": 5096,
      "▁在庫": 5097,
      "▁結び": 5098,
      "▁受け入れ": 5099,
      "▁いくら": 5100,
      "ike": 5101,
      "▁部品": 5102,
      "▁マスター": 5103,
      "▁グロー": 5104,
      "▁香港": 5105,
      "▁巨大": 5106,
      "▁なき": 5107,
      "向き": 5108,
      "▁泉": 5109,
      "▁49": 5110,
      "▁正しい": 5111,
      "▁向き": 5112,
      "▁深く": 5113,
      "▁まつ": 5114,
      "▁現状": 5115,
      "▁執筆": 5116,
      "▁ゆう": 5117,
      "▁ヌ": 5118,
      "▁高齢": 5119,
      "▁チュー": 5120,
      "▁凄": 5121,
      "▁汗": 5122,
      "▁レンタル": 5123,
      "▁6.": 5124,
      "▁どんどん": 5125,
      "▁疑問": 5126,
      "▁ev": 5127,
      "▁一括": 5128,
      "▁コンサート": 5129,
      "▁リーダー": 5130,
      "▁初め": 5131,
      "▁磁": 5132,
      "▁まだまだ": 5133,
      "▁学会": 5134,
      "▁アドレス": 5135,
      "▁義務": 5136,
      "▁短い": 5137,
      "▁もらえる": 5138,
      "アップ": 5139,
      "▁スポット": 5140,
      "▁触れ": 5141,
      "チャー": 5142,
      "oth": 5143,
      "▁ちょうど": 5144,
      "▁記者": 5145,
      "▁仁": 5146,
      "ティア": 5147,
      "クシー": 5148,
      "▁考慮": 5149,
      "▁走り": 5150,
      "▁之": 5151,
      "▁葬": 5152,
      "▁男女": 5153,
      "▁ボディ": 5154,
      "▁規則": 5155,
      "ake": 5156,
      "▁結合": 5157,
      "がい": 5158,
      "▁付属": 5159,
      "▁軒": 5160,
      "クタ": 5161,
      "▁取り付け": 5162,
      "▁買い物": 5163,
      "▁正直": 5164,
      "▁すら": 5165,
      "▁李": 5166,
      "ade": 5167,
      "▁japan": 5168,
      "じめ": 5169,
      "▁態": 5170,
      "▁教師": 5171,
      "▁菌": 5172,
      "▁ひとり": 5173,
      "▁諸島": 5174,
      "シャン": 5175,
      "▁不要": 5176,
      "▁茨": 5177,
      "▁演じ": 5178,
      "▁鈴木": 5179,
      "▁41": 5180,
      "3.": 5181,
      "▁庫": 5182,
      "▁チャート": 5183,
      "▁解消": 5184,
      "▁開け": 5185,
      "立っ": 5186,
      "▁杉": 5187,
      "▁デュ": 5188,
      "▁タグ": 5189,
      "▁経過": 5190,
      "▁天気": 5191,
      "▁忙": 5192,
      "ube": 5193,
      "▁平日": 5194,
      "▁思想": 5195,
      "▁都合": 5196,
      "フレ": 5197,
      "▁育成": 5198,
      "▁ログ": 5199,
      "▁ソング": 5200,
      "ューサー": 5201,
      "iss": 5202,
      "▁有し": 5203,
      "▁衆議": 5204,
      "▁きちんと": 5205,
      "▁地位": 5206,
      "▁見積もり": 5207,
      "▁宮城": 5208,
      "▁後期": 5209,
      "▁対立": 5210,
      "▁過程": 5211,
      "tml": 5212,
      "▁学ぶ": 5213,
      "▁1983": 5214,
      "▁伝説": 5215,
      "▁妹": 5216,
      "フォル": 5217,
      "▁広い": 5218,
      "▁インタビュー": 5219,
      "▁蔵": 5220,
      "▁講座": 5221,
      "たま": 5222,
      "▁顕": 5223,
      "▁車体": 5224,
      "▁エピソード": 5225,
      "▁柄": 5226,
      "ビング": 5227,
      "モンド": 5228,
      "▁よし": 5229,
      "▁就職": 5230,
      "▁苦手": 5231,
      "▁徐々": 5232,
      "▁随": 5233,
      "レント": 5234,
      "▁とる": 5235,
      "ood": 5236,
      "▁近づ": 5237,
      "▁奏": 5238,
      "▁複雑": 5239,
      "▁たび": 5240,
      "▁陸上": 5241,
      "▁マラ": 5242,
      "▁理想": 5243,
      "▁ピン": 5244,
      "ose": 5245,
      "▁セレ": 5246,
      "▁危機": 5247,
      "▁免許": 5248,
      "▁チャンネル": 5249,
      "▁解放": 5250,
      "▁�": 5251,
      "▁単純": 5252,
      "▁建造": 5253,
      "▁06": 5254,
      "▁amazon": 5255,
      "▁net": 5256,
      "▁改良": 5257,
      "▁学院": 5258,
      "▁糸": 5259,
      "▁ユダヤ": 5260,
      "ジュール": 5261,
      "▁推定": 5262,
      "▁瀬": 5263,
      "▁煮": 5264,
      "▁田中": 5265,
      "▁絞": 5266,
      "▁慣れ": 5267,
      "ハン": 5268,
      "▁本塁": 5269,
      "▁票": 5270,
      "▁伊勢": 5271,
      "▁体育": 5272,
      "▁統計": 5273,
      "▁尚": 5274,
      "▁1945": 5275,
      "▁インスト": 5276,
      "▁ヘア": 5277,
      "パクト": 5278,
      "▁相続": 5279,
      "▁キャンプ": 5280,
      "▁プロデューサー": 5281,
      "▁検出": 5282,
      "▁栽": 5283,
      "▁割り": 5284,
      "▁オーバー": 5285,
      "▁洗濯": 5286,
      "▁文章": 5287,
      "▁イングランド": 5288,
      "▁在籍": 5289,
      "▁事例": 5290,
      "▁幕府": 5291,
      "▁走っ": 5292,
      "▁論文": 5293,
      "▁多少": 5294,
      "▁創業": 5295,
      "トリ": 5296,
      "▁コンク": 5297,
      "▁懐": 5298,
      "▁塔": 5299,
      "▁゚": 5300,
      "▁期限": 5301,
      "ピン": 5302,
      "▁協議": 5303,
      "34": 5304,
      "▁栽培": 5305,
      "トゥ": 5306,
      "回り": 5307,
      "▁戻る": 5308,
      "▁切っ": 5309,
      "▁中間": 5310,
      "▁楽しめる": 5311,
      "▁堀": 5312,
      "▁line": 5313,
      "▁縮": 5314,
      "▁刺激": 5315,
      "▁ショッピング": 5316,
      "▁血液": 5317,
      "▁避け": 5318,
      "▁発揮": 5319,
      "32": 5320,
      "▁踊": 5321,
      "▁アパート": 5322,
      "▁納得": 5323,
      "▁貧": 5324,
      "▁借金": 5325,
      "-5": 5326,
      "▁リアル": 5327,
      "old": 5328,
      "ルー": 5329,
      "▁マグ": 5330,
      "▁属する": 5331,
      "▁一種": 5332,
      "▁ねぇ": 5333,
      "▁いらっしゃ": 5334,
      "ton": 5335,
      "▁滅": 5336,
      "▁劣": 5337,
      "▁アシ": 5338,
      "▁涙": 5339,
      "▁任意": 5340,
      "▁〇": 5341,
      "du": 5342,
      "▁真っ": 5343,
      "▁コラ": 5344,
      "▁上がっ": 5345,
      "▁ほん": 5346,
      "▁恒": 5347,
      "▁端末": 5348,
      "▁パフォーマ": 5349,
      "▁余裕": 5350,
      "▁文献": 5351,
      "▁yout": 5352,
      "▁返済": 5353,
      "▁オフィス": 5354,
      "▁100%": 5355,
      "▁out": 5356,
      "▁市長": 5357,
      "▁もっとも": 5358,
      "▁進化": 5359,
      "▁敬": 5360,
      "▁オプション": 5361,
      "▁1982": 5362,
      "▁ブラジル": 5363,
      "▁削除": 5364,
      "▁全身": 5365,
      "▁焦": 5366,
      "▁区域": 5367,
      "▁関数": 5368,
      "▁おそらく": 5369,
      "▁伝える": 5370,
      "▁あくま": 5371,
      "▁かわいい": 5372,
      "▁年末": 5373,
      "▁筋肉": 5374,
      "▁たる": 5375,
      "ストリア": 5376,
      "▁容量": 5377,
      "▁他人": 5378,
      "▁彩": 5379,
      "▁容易": 5380,
      "▁fir": 5381,
      "▁◎": 5382,
      "▁チケット": 5383,
      "ちゃん": 5384,
      "▁せん": 5385,
      "▁ヴォ": 5386,
      "ジアム": 5387,
      "▁長官": 5388,
      "▁重視": 5389,
      "▁やま": 5390,
      "▁貨物": 5391,
      "▁財産": 5392,
      "▁任命": 5393,
      "▁起用": 5394,
      "▁需": 5395,
      "ery": 5396,
      "▁ウィリアム": 5397,
      "▁当て": 5398,
      "▁やが": 5399,
      "ージュ": 5400,
      "▁代理": 5401,
      "▁アカデ": 5402,
      "▁施工": 5403,
      "▁石川": 5404,
      "ii": 5405,
      "リュー": 5406,
      "▁チョコ": 5407,
      "▁異常": 5408,
      "▁書類": 5409,
      "▁3)": 5410,
      "▁スキー": 5411,
      "▁偏": 5412,
      "▁car": 5413,
      "▁引っ越し": 5414,
      "ゼル": 5415,
      "▁あくまで": 5416,
      "▁相互": 5417,
      "▁大分": 5418,
      "どん": 5419,
      "▁世話": 5420,
      "▁♡": 5421,
      "ram": 5422,
      "▁灯": 5423,
      "▁1972": 5424,
      "▁高度": 5425,
      "▁オーディ": 5426,
      "▁ああ": 5427,
      "▁皮膚": 5428,
      "▁和歌": 5429,
      "▁タウン": 5430,
      "▁漏": 5431,
      "▁pe": 5432,
      "▁さすが": 5433,
      "▁if": 5434,
      "..": 5435,
      "▁柔らか": 5436,
      "▁実践": 5437,
      "▁試み": 5438,
      "▁amp": 5439,
      "▁滝": 5440,
      "▁小さく": 5441,
      "▁沢山": 5442,
      "▁気温": 5443,
      "▁雇用": 5444,
      "▁do": 5445,
      "▁モチ": 5446,
      "▁課程": 5447,
      "▁滞在": 5448,
      "入り": 5449,
      "75": 5450,
      "▁柳": 5451,
      "▁1979": 5452,
      "ater": 5453,
      "▁保持": 5454,
      "▁基づく": 5455,
      "▁分かる": 5456,
      "▁スペシャル": 5457,
      "▁ジャンル": 5458,
      "▁go": 5459,
      "▁成果": 5460,
      "▁我々": 5461,
      "▁落とし": 5462,
      "▁スリ": 5463,
      "▁58": 5464,
      "▁前述": 5465,
      "▁手数": 5466,
      "▁足り": 5467,
      "▁開か": 5468,
      "▁乗車": 5469,
      "▁執行": 5470,
      "▁眺": 5471,
      "▁挟": 5472,
      "▁殿": 5473,
      "ブラ": 5474,
      "▁ゼロ": 5475,
      "▁アクション": 5476,
      "▁白い": 5477,
      "▁うどん": 5478,
      "▁南北": 5479,
      "▁セール": 5480,
      "▁av": 5481,
      "▁斜": 5482,
      "▁想定": 5483,
      "▁鍵": 5484,
      "▁機体": 5485,
      "▁地点": 5486,
      "ボード": 5487,
      "▁ランク": 5488,
      "▁56": 5489,
      "get": 5490,
      "▁哲学": 5491,
      "▁フィルム": 5492,
      "▁ディー": 5493,
      "▁握": 5494,
      "▁レンズ": 5495,
      "▁発足": 5496,
      "▁扉": 5497,
      "▁遺産": 5498,
      "▁もつ": 5499,
      "▁うる": 5500,
      "▁チーズ": 5501,
      "▁身長": 5502,
      "▁女の子": 5503,
      "▁疾": 5504,
      "▁あらゆる": 5505,
      "▁ブラン": 5506,
      "▁佐藤": 5507,
      "▁拒否": 5508,
      "▁把": 5509,
      "▁ポーランド": 5510,
      "▁ゴールド": 5511,
      "▁関心": 5512,
      "▁肝": 5513,
      "▁本名": 5514,
      "▁放射": 5515,
      "▁脂肪": 5516,
      "▁but": 5517,
      "引き": 5518,
      "にち": 5519,
      "▁イー": 5520,
      "▁約束": 5521,
      "▁行か": 5522,
      "▁進み": 5523,
      "ra": 5524,
      "▁楽しん": 5525,
      "▁命名": 5526,
      "▁1975": 5527,
      "▁富山": 5528,
      "▁生み": 5529,
      "▁並ん": 5530,
      "▁銅": 5531,
      "▁have": 5532,
      "▁らしく": 5533,
      "▁google": 5534,
      "▁家具": 5535,
      "▁やがて": 5536,
      "▁おかげ": 5537,
      "▁退職": 5538,
      "ound": 5539,
      "▁討": 5540,
      "▁久し": 5541,
      "▁災害": 5542,
      "▁顧客": 5543,
      "▁震災": 5544,
      "▁援": 5545,
      "▁さい": 5546,
      "▁シナ": 5547,
      "▁むしろ": 5548,
      "▁西部": 5549,
      "ーンズ": 5550,
      "▁ミュ": 5551,
      "▁面倒": 5552,
      "▁虫": 5553,
      "▁釣り": 5554,
      "▁市街": 5555,
      "▁秘密": 5556,
      "▁通算": 5557,
      "メートル": 5558,
      "▁入手": 5559,
      "▁エス": 5560,
      "まえ": 5561,
      "▁起こっ": 5562,
      "▁チャンス": 5563,
      "▁フロント": 5564,
      "▁パーティー": 5565,
      "▁後継": 5566,
      "ペン": 5567,
      "▁闘": 5568,
      "▁階級": 5569,
      "▁ジャケット": 5570,
      "▁先発": 5571,
      "▁発達": 5572,
      "▁した": 5573,
      "▁話す": 5574,
      "▁肥": 5575,
      "800": 5576,
      "▁おこ": 5577,
      "33": 5578,
      "▁表情": 5579,
      "▁取材": 5580,
      "▁保有": 5581,
      "ッケージ": 5582,
      "▁also": 5583,
      "▁回数": 5584,
      "▁戻り": 5585,
      "▁マシン": 5586,
      "▁軽く": 5587,
      "サル": 5588,
      "▁大半": 5589,
      "▁突き": 5590,
      "▁引き続き": 5591,
      "▁sch": 5592,
      "▁如": 5593,
      "▁パフォーマンス": 5594,
      "▁はっきり": 5595,
      "▁min": 5596,
      "▁トピック": 5597,
      "▁パネル": 5598,
      "▁淡": 5599,
      "▁1981": 5600,
      "▁区別": 5601,
      "▁加盟": 5602,
      "▁レシピ": 5603,
      "▁阪神": 5604,
      "ck": 5605,
      "▁走る": 5606,
      "▁川崎": 5607,
      "しみ": 5608,
      "▁マク": 5609,
      "▁任務": 5610,
      "▁単独": 5611,
      "▁1978": 5612,
      "▁終わる": 5613,
      "▁なくなっ": 5614,
      "▁まさに": 5615,
      "▁徹底": 5616,
      "▁パッケージ": 5617,
      "▁東海": 5618,
      "▁貫": 5619,
      "▁次い": 5620,
      "ther": 5621,
      "▁ボク": 5622,
      "▁遭": 5623,
      "▁膨": 5624,
      "▁結ん": 5625,
      "▁用語": 5626,
      "▁qu": 5627,
      "▁経緯": 5628,
      "▁無事": 5629,
      "▁宮崎": 5630,
      "▁おしゃ": 5631,
      "▁とっても": 5632,
      "▁かた": 5633,
      "▁緊急": 5634,
      "▁亀": 5635,
      "▁04": 5636,
      "ild": 5637,
      "▁臭": 5638,
      "▁インチ": 5639,
      "▁天文": 5640,
      "▁プリン": 5641,
      "▁旅客": 5642,
      "▁悪化": 5643,
      "▁応募": 5644,
      "▁制定": 5645,
      "▁強制": 5646,
      "▁she": 5647,
      "▁改めて": 5648,
      "ef": 5649,
      "▁音声": 5650,
      "▁分子": 5651,
      "▁ナビ": 5652,
      "ステル": 5653,
      "▁トロ": 5654,
      "コー": 5655,
      "▁gro": 5656,
      "▁電源": 5657,
      "▁解釈": 5658,
      "▁側面": 5659,
      "▁済み": 5660,
      "▁マスク": 5661,
      "くら": 5662,
      "▁保管": 5663,
      "▁ドライブ": 5664,
      "かける": 5665,
      "ri": 5666,
      "▁決して": 5667,
      "▁とう": 5668,
      "▁なー": 5669,
      "▁申し込み": 5670,
      "▁取り入れ": 5671,
      "▁貰": 5672,
      "▁登板": 5673,
      "▁ドライバー": 5674,
      "▁名乗": 5675,
      "▁チャレンジ": 5676,
      "かせ": 5677,
      "▁収集": 5678,
      "▁インテ": 5679,
      "焼き": 5680,
      "▁銘": 5681,
      "▁ワード": 5682,
      "フォルニア": 5683,
      "▁債務": 5684,
      "▁ようやく": 5685,
      "▁1973": 5686,
      "▁日目": 5687,
      "レーター": 5688,
      "▁賛": 5689,
      "▁お前": 5690,
      "▁収容": 5691,
      "▁入団": 5692,
      "▁トンネル": 5693,
      "▁抱え": 5694,
      "▁www": 5695,
      "▁聞こ": 5696,
      "▁那": 5697,
      "▁サム": 5698,
      "▁わたっ": 5699,
      "▁弊": 5700,
      "▁康": 5701,
      "▁録音": 5702,
      "▁恐れ": 5703,
      "▁措": 5704,
      "lt": 5705,
      "▁ショート": 5706,
      "▁感動": 5707,
      "▁歌詞": 5708,
      "▁離婚": 5709,
      "▁着用": 5710,
      "▁ヒト": 5711,
      "▁スポンサー": 5712,
      "▁7.": 5713,
      "▁鎌倉": 5714,
      "▁かける": 5715,
      "▁匹": 5716,
      "トリック": 5717,
      "▁吹き": 5718,
      "▁気付": 5719,
      "▁挿": 5720,
      "▁通貨": 5721,
      "▁ブック": 5722,
      "▁球団": 5723,
      "▁いかが": 5724,
      "セット": 5725,
      "キシコ": 5726,
      "ツィ": 5727,
      "▁first": 5728,
      "▁ベン": 5729,
      "▁1976": 5730,
      "▁tweet": 5731,
      "▁新人": 5732,
      "▁合流": 5733,
      "▁渋谷": 5734,
      "▁至っ": 5735,
      "▁·": 5736,
      "▁グランプリ": 5737,
      "▁赤ちゃん": 5738,
      "▁おしゃれ": 5739,
      "▁ドレス": 5740,
      "ノン": 5741,
      "▁url": 5742,
      "▁ベルト": 5743,
      "▁集落": 5744,
      "▁機種": 5745,
      "▁東部": 5746,
      "ict": 5747,
      "▁崩壊": 5748,
      "バート": 5749,
      "▁will": 5750,
      "▁inst": 5751,
      "▁鍋": 5752,
      "▁中村": 5753,
      "▁観察": 5754,
      "▁古く": 5755,
      "▁そろ": 5756,
      "▁ポール": 5757,
      "▁▲": 5758,
      "▁対抗": 5759,
      "▁シェア": 5760,
      "▁漢字": 5761,
      "▁菊": 5762,
      "デー": 5763,
      "イム": 5764,
      "▁▼": 5765,
      "▁サウンド": 5766,
      "▁作詞": 5767,
      "▁犯罪": 5768,
      "▁業界": 5769,
      "▁配送": 5770,
      "▁信用": 5771,
      "▁引き継": 5772,
      "▁措置": 5773,
      "▁カリフォルニア": 5774,
      "▁1974": 5775,
      "▁競争": 5776,
      "▁職業": 5777,
      "▁gu": 5778,
      "▁貿": 5779,
      "▁圧倒": 5780,
      "85": 5781,
      "▁性質": 5782,
      "▁売上": 5783,
      "▁いただける": 5784,
      "▁占領": 5785,
      "ニャ": 5786,
      "セプト": 5787,
      "▁変える": 5788,
      "▁問わ": 5789,
      "▁数学": 5790,
      "▁57": 5791,
      "▁1969": 5792,
      "▁各国": 5793,
      "▁台風": 5794,
      "▁主題": 5795,
      "ザン": 5796,
      "▁弁当": 5797,
      "▁需要": 5798,
      "▁タイヤ": 5799,
      "▁トーク": 5800,
      "▁表明": 5801,
      "orn": 5802,
      "▁出張": 5803,
      "▁初心": 5804,
      "▁実家": 5805,
      "▁ハリ": 5806,
      "ジョン": 5807,
      "▁べく": 5808,
      "▁os": 5809,
      "▁貿易": 5810,
      "▁イスラ": 5811,
      "▁酵素": 5812,
      "▁モバ": 5813,
      "col": 5814,
      "▁控え": 5815,
      "▁知れ": 5816,
      "▁用途": 5817,
      "▁1968": 5818,
      "▁把握": 5819,
      "▁アプリケーション": 5820,
      "▁新作": 5821,
      "▁当たる": 5822,
      "ぶん": 5823,
      "▁売れ": 5824,
      "▁たっぷり": 5825,
      "▁高め": 5826,
      "▁沿っ": 5827,
      "▁ベト": 5828,
      "▁駆逐": 5829,
      "▁なさい": 5830,
      "▁勘": 5831,
      "ヴォ": 5832,
      "▁妊娠": 5833,
      "▁54": 5834,
      "▁hp": 5835,
      "▁風景": 5836,
      "▁work": 5837,
      "▁とら": 5838,
      "▁民国": 5839,
      "▁先端": 5840,
      "▁象徴": 5841,
      "▁深夜": 5842,
      "▁着物": 5843,
      "▁la": 5844,
      "▁1971": 5845,
      "▁公立": 5846,
      "▁more": 5847,
      "▁投入": 5848,
      "▁山形": 5849,
      "▁毎週": 5850,
      "▁ノート": 5851,
      "▁該当": 5852,
      "▁メイク": 5853,
      "▁粘": 5854,
      "▁回路": 5855,
      "▁まい": 5856,
      "▁達し": 5857,
      "▁再度": 5858,
      "▁塾": 5859,
      "▁揺": 5860,
      "▁ブラウン": 5861,
      "anc": 5862,
      "▁悩ん": 5863,
      "▁道具": 5864,
      "-4": 5865,
      "▁名義": 5866,
      "▁後述": 5867,
      "▁起こる": 5868,
      "▁スライ": 5869,
      "▁分解": 5870,
      "▁室内": 5871,
      "▁人工": 5872,
      "▁当たり前": 5873,
      "▁一致": 5874,
      "▁コントロール": 5875,
      "▁仕組み": 5876,
      "▁規格": 5877,
      "▁紛": 5878,
      "▁ブレーキ": 5879,
      "ライト": 5880,
      "▁取れ": 5881,
      "▁提示": 5882,
      "▁アドバイス": 5883,
      "▁証拠": 5884,
      "▁無線": 5885,
      "▁自社": 5886,
      "ライン": 5887,
      "▁アカデミー": 5888,
      "▁茨城": 5889,
      "▁自衛": 5890,
      "▁張り": 5891,
      "▁03": 5892,
      "▁次元": 5893,
      "イオ": 5894,
      "▁師団": 5895,
      "▁描く": 5896,
      "▁幼稚": 5897,
      "▁停車": 5898,
      "▁モニ": 5899,
      "▁1977": 5900,
      "▁ジュニア": 5901,
      "▁who": 5902,
      "▁若干": 5903,
      "▁ミサ": 5904,
      "▁確立": 5905,
      "▁優しい": 5906,
      "▁噴": 5907,
      "クサ": 5908,
      "▁ナイト": 5909,
      "▁失っ": 5910,
      "▁ケーブル": 5911,
      "▁裕": 5912,
      "▁手伝": 5913,
      "リュ": 5914,
      "▁分かれ": 5915,
      "land": 5916,
      "▁フード": 5917,
      "ool": 5918,
      "▁浮か": 5919,
      "▁柱": 5920,
      "95": 5921,
      "ルン": 5922,
      "ルツ": 5923,
      "▁マジ": 5924,
      "▁召": 5925,
      "▁sw": 5926,
      "▁青年": 5927,
      "),": 5928,
      "▁手紙": 5929,
      "▁青森": 5930,
      "▁world": 5931,
      "▁撤退": 5932,
      "▁日時": 5933,
      "▁英国": 5934,
      "▁カロ": 5935,
      "ウンサー": 5936,
      "▁オーストリア": 5937,
      "▁comment": 5938,
      "▁金曜": 5939,
      "▁64": 5940,
      "▁一気": 5941,
      "▁透明": 5942,
      "▁アルバイト": 5943,
      "▁year": 5944,
      "▁どうぞ": 5945,
      "▁改称": 5946,
      "▁緊張": 5947,
      "▁パートナー": 5948,
      "▁マリ": 5949,
      "▁めぐ": 5950,
      "▁オル": 5951,
      "▁さっ": 5952,
      "リアン": 5953,
      "▁接触": 5954,
      "▁吉田": 5955,
      "▁エド": 5956,
      "▁特性": 5957,
      "▁ss": 5958,
      "▁ポート": 5959,
      "▁調理": 5960,
      "▁沿い": 5961,
      "▁歯科": 5962,
      "▁先行": 5963,
      "cr": 5964,
      "▁返信": 5965,
      "▁歓迎": 5966,
      "▁判決": 5967,
      "▁アイル": 5968,
      "もの": 5969,
      "ics": 5970,
      "▁大使": 5971,
      "▁posted": 5972,
      "▁折り": 5973,
      "▁支え": 5974,
      "取る": 5975,
      "▁融資": 5976,
      "かさ": 5977,
      "▁刻": 5978,
      "▁引用": 5979,
      "▁had": 5980,
      "▁出来事": 5981,
      "▁算": 5982,
      "▁決済": 5983,
      "▁毒": 5984,
      "ations": 5985,
      "▁育て": 5986,
      "▁資本": 5987,
      "▁棟": 5988,
      "▁附": 5989,
      "▁アナウンサー": 5990,
      "▁しも": 5991,
      "ましい": 5992,
      "▁国会": 5993,
      "▁習慣": 5994,
      "▁こんにち": 5995,
      "ms": 5996,
      "▁流れる": 5997,
      "▁カール": 5998,
      "lect": 5999,
      "▁おいしい": 6000,
      "よい": 6001,
      "▁月末": 6002,
      "▁スウェー": 6003,
      "▁促進": 6004,
      "▁トヨ": 6005,
      "▁レール": 6006,
      "▁コミック": 6007,
      "▁移住": 6008,
      "▁要因": 6009,
      "▁運勢": 6010,
      "▁ren": 6011,
      "▁前作": 6012,
      "▁スイス": 6013,
      "86": 6014,
      "グル": 6015,
      "▁フィールド": 6016,
      "▁インストール": 6017,
      "▁回収": 6018,
      "▁モバイル": 6019,
      "▁合っ": 6020,
      "▁youtube": 6021,
      "シャー": 6022,
      "▁殺害": 6023,
      "--": 6024,
      "▁阻": 6025,
      "▁財政": 6026,
      "▁残さ": 6027,
      "▁果たす": 6028,
      "▁スウェーデン": 6029,
      "▁ピース": 6030,
      "▁典": 6031,
      "▁きょう": 6032,
      "▁消え": 6033,
      "めん": 6034,
      "ニン": 6035,
      "▁うん": 6036,
      "ネート": 6037,
      "▁パーツ": 6038,
      "止め": 6039,
      "▁賢": 6040,
      "▁gl": 6041,
      "▁str": 6042,
      "▁コンビニ": 6043,
      "▁住む": 6044,
      "▁ざる": 6045,
      "▁依存": 6046,
      "▁パンツ": 6047,
      "▁統治": 6048,
      "ember": 6049,
      "▁ロボット": 6050,
      "▁センチ": 6051,
      "▁管轄": 6052,
      "▁駆動": 6053,
      "とり": 6054,
      "ents": 6055,
      "▁gre": 6056,
      "▁ロゴ": 6057,
      "ould": 6058,
      "▁でしょ": 6059,
      "▁三菱": 6060,
      "▁vol": 6061,
      "▁並び": 6062,
      "ソナ": 6063,
      "▁遺跡": 6064,
      "▁思い出": 6065,
      "▁通勤": 6066,
      "▁気候": 6067,
      "▁バッテ": 6068,
      "オル": 6069,
      "▁デン": 6070,
      "ays": 6071,
      "▁el": 6072,
      "▁解除": 6073,
      "▁防ぐ": 6074,
      "▁こだわり": 6075,
      "アウト": 6076,
      "▁ベトナム": 6077,
      "▁メキシコ": 6078,
      "▁邪": 6079,
      "▁充電": 6080,
      "すじ": 6081,
      "▁フット": 6082,
      "▁未満": 6083,
      "▁判明": 6084,
      "▁居住": 6085,
      "ケル": 6086,
      "▁ビット": 6087,
      "▁垂": 6088,
      "▁敷地": 6089,
      "les": 6090,
      "▁決める": 6091,
      "▁山田": 6092,
      "▁取り上げ": 6093,
      "▁祝い": 6094,
      "▁1964": 6095,
      "▁レジ": 6096,
      "▁正規": 6097,
      "▁癒": 6098,
      "▁単に": 6099,
      "▁転換": 6100,
      "▁mac": 6101,
      "▁ノル": 6102,
      "▁予備": 6103,
      "▁ポケット": 6104,
      "▁雅": 6105,
      "▁上下": 6106,
      "▁hot": 6107,
      "▁登山": 6108,
      "ンスター": 6109,
      "▁やっと": 6110,
      "▁念": 6111,
      "▁桃": 6112,
      "▁黄色": 6113,
      "▁孝": 6114,
      "▁割合": 6115,
      "▁マット": 6116,
      "gh": 6117,
      "▁衝撃": 6118,
      "まれ": 6119,
      "▁短期": 6120,
      "▁恩": 6121,
      "▁尋": 6122,
      "▁お腹": 6123,
      "ドリ": 6124,
      "▁爆発": 6125,
      "▁プール": 6126,
      "▁みよう": 6127,
      "▁向かい": 6128,
      "▁換": 6129,
      "▁プロセス": 6130,
      "タミン": 6131,
      "▁踏み": 6132,
      "▁下り": 6133,
      "マーク": 6134,
      "イナー": 6135,
      "▁外交": 6136,
      "▁徳川": 6137,
      "▁繰り": 6138,
      "▁枝": 6139,
      "▁集まっ": 6140,
      "ower": 6141,
      "▁確率": 6142,
      "▁必須": 6143,
      "チュア": 6144,
      "▁挨": 6145,
      "▁マイクロ": 6146,
      "▁享": 6147,
      "▁浄": 6148,
      "▁体調": 6149,
      "▁づけ": 6150,
      "▁グッズ": 6151,
      "▁ベイ": 6152,
      "▁挨拶": 6153,
      "▁コラボ": 6154,
      "▁カスタ": 6155,
      "▁トライ": 6156,
      "▁俊": 6157,
      "▁年より": 6158,
      "▁会計": 6159,
      "-10": 6160,
      "▁孤": 6161,
      "96": 6162,
      "▁栃": 6163,
      "▁広場": 6164,
      "▁ヘン": 6165,
      "▁大和": 6166,
      "▁1967": 6167,
      "▁謎": 6168,
      "▁ココ": 6169,
      "作り": 6170,
      "▁出産": 6171,
      "▁旦": 6172,
      "▁階段": 6173,
      "ーラ": 6174,
      "▁仕上げ": 6175,
      "▁したがっ": 6176,
      "サイト": 6177,
      "▁かし": 6178,
      "▁作者": 6179,
      "▁gen": 6180,
      "▁ツー": 6181,
      "▁キャスト": 6182,
      "▁ナンバー": 6183,
      "wn": 6184,
      "▁受信": 6185,
      "▁捨て": 6186,
      "▁トレード": 6187,
      "▁キャッシュ": 6188,
      "▁植民": 6189,
      "▁信仰": 6190,
      "▁マルチ": 6191,
      "▁出現": 6192,
      "▁従事": 6193,
      "▁ディズ": 6194,
      "▁実質": 6195,
      "われ": 6196,
      "▁属し": 6197,
      "ライナ": 6198,
      "78": 6199,
      "▁ペース": 6200,
      "▁⇒": 6201,
      "▁一生": 6202,
      "▁アレンジ": 6203,
      "▁エリ": 6204,
      "▁02": 6205,
      "▁あき": 6206,
      "どり": 6207,
      "▁かね": 6208,
      "▁戦車": 6209,
      "▁まるで": 6210,
      "▁夕方": 6211,
      "▁苗": 6212,
      "▁行け": 6213,
      "▁商店": 6214,
      "po": 6215,
      "▁吐": 6216,
      "シス": 6217,
      "▁特典": 6218,
      "▁リス": 6219,
      "▁公表": 6220,
      "▁time": 6221,
      "▁52": 6222,
      "▁after": 6223,
      "バーグ": 6224,
      "arch": 6225,
      "ert": 6226,
      "▁コンセプト": 6227,
      "▁ミリ": 6228,
      "98": 6229,
      "che": 6230,
      "ubl": 6231,
      "▁貞": 6232,
      "▁払い": 6233,
      "ッパー": 6234,
      "▁呼称": 6235,
      "▁トヨタ": 6236,
      "▁600": 6237,
      "▁実感": 6238,
      "▁まち": 6239,
      "3)": 6240,
      "inal": 6241,
      "▁ホイ": 6242,
      "▁およそ": 6243,
      "▁衛星": 6244,
      "▁エキ": 6245,
      "▁あらすじ": 6246,
      "urn": 6247,
      "▁開き": 6248,
      "▁三重": 6249,
      "▁順位": 6250,
      "▁コイン": 6251,
      "▁諸国": 6252,
      "▁放題": 6253,
      "▁群馬": 6254,
      "▁特許": 6255,
      "▁視点": 6256,
      "▁徳島": 6257,
      "▁シア": 6258,
      "▁有料": 6259,
      "トラ": 6260,
      "▁テープ": 6261,
      "▁取り組み": 6262,
      "▁婦": 6263,
      "▁死ん": 6264,
      "▁stud": 6265,
      "▁会い": 6266,
      "▁才能": 6267,
      "▁ワシ": 6268,
      "▁air": 6269,
      "▁兵器": 6270,
      "▁ムー": 6271,
      "▁文庫": 6272,
      "^;": 6273,
      "▁スーツ": 6274,
      "ca": 6275,
      "the": 6276,
      "▁アウ": 6277,
      "▁しん": 6278,
      "ife": 6279,
      "▁せっ": 6280,
      "▁高額": 6281,
      "▁リード": 6282,
      "▁ビュー": 6283,
      "▁オーク": 6284,
      "▁タンパ": 6285,
      "▁苦労": 6286,
      "▁ぽ": 6287,
      "▁電池": 6288,
      "なく": 6289,
      "▁はる": 6290,
      "▁がっこう": 6291,
      "▁おっ": 6292,
      "▁買収": 6293,
      "▁遂": 6294,
      "▁mm": 6295,
      "ica": 6296,
      "▁ビッグ": 6297,
      "▁ハート": 6298,
      "▁示さ": 6299,
      "▁acc": 6300,
      "▁掘": 6301,
      "シップ": 6302,
      "ビエ": 6303,
      "▁アイルランド": 6304,
      "▁命じ": 6305,
      "▁オーダー": 6306,
      "ナイ": 6307,
      "▁fe": 6308,
      "▁人材": 6309,
      "▁困っ": 6310,
      "▁内側": 6311,
      "▁山本": 6312,
      "▁洞": 6313,
      "スタント": 6314,
      "▁コレクション": 6315,
      "▁摂取": 6316,
      "▁ファミリー": 6317,
      "▁歴任": 6318,
      "▁故障": 6319,
      "▁いえる": 6320,
      "▁スイッチ": 6321,
      "▁アメリカン": 6322,
      "▁ネイ": 6323,
      "▁こんにちは": 6324,
      "レッジ": 6325,
      "▁生息": 6326,
      "▁mon": 6327,
      "▁ポルト": 6328,
      "▁fac": 6329,
      "プロ": 6330,
      "リル": 6331,
      "▁議長": 6332,
      "▁率いる": 6333,
      "▁別れ": 6334,
      "76": 6335,
      "▁要望": 6336,
      "▁松本": 6337,
      "▁激しい": 6338,
      "▁タブ": 6339,
      "▁あたっ": 6340,
      "▁智": 6341,
      "▁丹": 6342,
      "▁1965": 6343,
      "▁ダー": 6344,
      "▁タッチ": 6345,
      "▁味噌": 6346,
      "▁旦那": 6347,
      "▁呼吸": 6348,
      "fer": 6349,
      "▁儀": 6350,
      "▁証券": 6351,
      "▁だり": 6352,
      "▁激安": 6353,
      "▁姉妹": 6354,
      "▁従業": 6355,
      "▁ps": 6356,
      "違い": 6357,
      "▁提携": 6358,
      "▁鶏": 6359,
      "▁武蔵": 6360,
      "▁電動": 6361,
      "▁っぽい": 6362,
      "▁生じる": 6363,
      "▁ダメージ": 6364,
      "▁画家": 6365,
      "▁飲む": 6366,
      "ier": 6367,
      "▁幻": 6368,
      "▁療法": 6369,
      "▁their": 6370,
      "▁前提": 6371,
      "▁彫": 6372,
      "プラ": 6373,
      "▁1/": 6374,
      "▁top": 6375,
      "▁リラ": 6376,
      "寄り": 6377,
      "▁長年": 6378,
      "▁同期": 6379,
      "▁スコット": 6380,
      "▁渡り": 6381,
      "▁畑": 6382,
      "▁レンジ": 6383,
      "▁脇": 6384,
      "▁ベー": 6385,
      "▁新設": 6386,
      "▁茂": 6387,
      "▁キュ": 6388,
      "▁スム": 6389,
      "▁ゴム": 6390,
      "ルター": 6391,
      "▁臨時": 6392,
      "▁個別": 6393,
      "▁渡っ": 6394,
      "▁繊維": 6395,
      "▁ついに": 6396,
      "▁慎": 6397,
      "ハー": 6398,
      "▁メイ": 6399,
      "▁フランク": 6400,
      "ティン": 6401,
      "▁連結": 6402,
      "▁ドリン": 6403,
      "▁tbs": 6404,
      "▁鋼": 6405,
      "▁類似": 6406,
      "▁駆け": 6407,
      "▁福井": 6408,
      "▁河川": 6409,
      "▁既存": 6410,
      "▁区分": 6411,
      "▁南西": 6412,
      "▁ウェイ": 6413,
      "▁クリニック": 6414,
      "▁売っ": 6415,
      "▁タレント": 6416,
      "▁様式": 6417,
      "▁極めて": 6418,
      "▁前日": 6419,
      "ーマン": 6420,
      "form": 6421,
      "▁チェーン": 6422,
      "▁独特": 6423,
      "わし": 6424,
      "▁kn": 6425,
      "tc": 6426,
      "▁意思": 6427,
      "▁閲": 6428,
      "▁コミュニティ": 6429,
      "▁古墳": 6430,
      "▁ディズニー": 6431,
      "▁上映": 6432,
      "▁均": 6433,
      "ivers": 6434,
      "-20": 6435,
      "▁還": 6436,
      "▁ジム": 6437,
      "▁開通": 6438,
      "▁59": 6439,
      "▁とど": 6440,
      "▁広がり": 6441,
      "▁立つ": 6442,
      "41": 6443,
      "▁51": 6444,
      "▁閉鎖": 6445,
      "▁予測": 6446,
      "▁合意": 6447,
      "▁輸出": 6448,
      "▁うれ": 6449,
      "ミス": 6450,
      "▁個体": 6451,
      "▁偶": 6452,
      "休み": 6453,
      "▁保障": 6454,
      "▁振り返": 6455,
      "ナン": 6456,
      "▁ハワイ": 6457,
      "▁cent": 6458,
      "ats": 6459,
      "▁ギフト": 6460,
      "▁財団": 6461,
      "レル": 6462,
      "▁次回": 6463,
      "▁1966": 6464,
      "▁寄せ": 6465,
      "▁入札": 6466,
      "▁休日": 6467,
      "▁撮っ": 6468,
      "▁セキュ": 6469,
      "▁嘉": 6470,
      "▁イル": 6471,
      "▁損害": 6472,
      "▁見学": 6473,
      "▁売買": 6474,
      "▁意図": 6475,
      "▁小田": 6476,
      "▁脅": 6477,
      "▁エジ": 6478,
      "▁強力": 6479,
      "▁高橋": 6480,
      "▁サプリ": 6481,
      "▁任せ": 6482,
      "▁1940": 6483,
      "▁できれ": 6484,
      "切っ": 6485,
      "▁消滅": 6486,
      "▁扱う": 6487,
      "▁変動": 6488,
      "▁翼": 6489,
      "ねる": 6490,
      "▁伊藤": 6491,
      "▁低く": 6492,
      "▁人類": 6493,
      "▁無かっ": 6494,
      "▁they": 6495,
      "▁sec": 6496,
      "ork": 6497,
      "▁要請": 6498,
      "▁1944": 6499,
      "やす": 6500,
      "▁リュ": 6501,
      "▁認知": 6502,
      "▁境界": 6503,
      "▁aw": 6504,
      "リーナ": 6505,
      "▁ネック": 6506,
      "▁通知": 6507,
      "▁キュー": 6508,
      "▁無駄": 6509,
      "ina": 6510,
      "▁ボード": 6511,
      "▁熟": 6512,
      "▁rep": 6513,
      "チック": 6514,
      "▁涼": 6515,
      "▁潜水": 6516,
      "ions": 6517,
      "▁敏": 6518,
      "▁アミ": 6519,
      "▁守備": 6520,
      "▁送る": 6521,
      "▁読者": 6522,
      "▁sim": 6523,
      "▁有り": 6524,
      "▁合う": 6525,
      "▁呉": 6526,
      "▁hd": 6527,
      "▁ジャンプ": 6528,
      "▁藩主": 6529,
      "▁弊社": 6530,
      "▁祭り": 6531,
      "▁プロダ": 6532,
      "▁数値": 6533,
      "▁再現": 6534,
      "▁4,": 6535,
      "▁逸": 6536,
      "ited": 6537,
      "▁資源": 6538,
      "▁伺": 6539,
      "gb": 6540,
      "▁cp": 6541,
      "▁北京": 6542,
      "▁閲覧": 6543,
      "%)": 6544,
      "▁寸": 6545,
      "▁仏教": 6546,
      "▁特集": 6547,
      "unction": 6548,
      "▁略称": 6549,
      "▁mod": 6550,
      "▁bu": 6551,
      "0)": 6552,
      "▁対処": 6553,
      "▁工夫": 6554,
      "▁編入": 6555,
      "ale": 6556,
      "サス": 6557,
      "▁弟子": 6558,
      "▁具合": 6559,
      "▁メガ": 6560,
      "入れる": 6561,
      "▁蓄": 6562,
      "vel": 6563,
      "下げ": 6564,
      "▁筑": 6565,
      "▁引き起こ": 6566,
      "▁観客": 6567,
      "▁ass": 6568,
      "▁清水": 6569,
      "▁天井": 6570,
      "▁混乱": 6571,
      "▁個性": 6572,
      "▁ロール": 6573,
      "▁不満": 6574,
      "▁上部": 6575,
      "▁豆腐": 6576,
      "▁ポスト": 6577,
      "▁led": 6578,
      "▁市内": 6579,
      "▁謝": 6580,
      "▁ギリシャ": 6581,
      "▁タンク": 6582,
      "▁1930": 6583,
      "▁ドン": 6584,
      "▁連隊": 6585,
      "▁赤い": 6586,
      "▁コア": 6587,
      "▁カイ": 6588,
      "▁劉": 6589,
      "▁勝負": 6590,
      "▁栗": 6591,
      "▁若者": 6592,
      "▁スタジアム": 6593,
      "▁旭": 6594,
      "▁叩": 6595,
      "▁だら": 6596,
      "▁協定": 6597,
      "▁落ち着い": 6598,
      "▁バッテリー": 6599,
      "▁響": 6600,
      "▁標高": 6601,
      "▁art": 6602,
      "▁オレンジ": 6603,
      "▁毎月": 6604,
      "▁施術": 6605,
      "ウド": 6606,
      "▁広がっ": 6607,
      "▁食材": 6608,
      "▁東西": 6609,
      "▁衝突": 6610,
      "▁飲食": 6611,
      "▁its": 6612,
      "▁半年": 6613,
      "ings": 6614,
      "当たり": 6615,
      "カス": 6616,
      "▁解体": 6617,
      "ors": 6618,
      "65": 6619,
      "▁棚": 6620,
      "返し": 6621,
      "▁圧力": 6622,
      "▁散歩": 6623,
      "▁アルミ": 6624,
      "▁毎回": 6625,
      "▁99": 6626,
      "▁嫌い": 6627,
      "▁ヒル": 6628,
      "▁モーター": 6629,
      "▁諦": 6630,
      "▁var": 6631,
      "▁和歌山": 6632,
      "ma": 6633,
      "▁定番": 6634,
      "▁想い": 6635,
      "▁祖父": 6636,
      "▁驚き": 6637,
      "42": 6638,
      "▁肢": 6639,
      "ne": 6640,
      "▁eu": 6641,
      "▁装着": 6642,
      "▁キャンセル": 6643,
      "▁フロー": 6644,
      "▁許さ": 6645,
      "me": 6646,
      "▁解析": 6647,
      "▁攻略": 6648,
      "▁部材": 6649,
      "▁pol": 6650,
      "▁割引": 6651,
      "▁弱い": 6652,
      "書き": 6653,
      "▁栃木": 6654,
      "▁狩": 6655,
      "▁レポート": 6656,
      "心地": 6657,
      "▁十字": 6658,
      "▁次々": 6659,
      "▁司法": 6660,
      "gl": 6661,
      "▁差別": 6662,
      "▁越え": 6663,
      "▁ベンチ": 6664,
      "ject": 6665,
      "▁アダ": 6666,
      "▁par": 6667,
      "▁国鉄": 6668,
      "▁でる": 6669,
      "▁貴重": 6670,
      "▁入院": 6671,
      "ーバー": 6672,
      "▁態度": 6673,
      "▁reg": 6674,
      "キャ": 6675,
      "▁格安": 6676,
      "▁同日": 6677,
      "▁sl": 6678,
      "▁寄り": 6679,
      "43": 6680,
      "▁恥": 6681,
      "▁平方": 6682,
      "▁刀": 6683,
      "ds": 6684,
      "▁地帯": 6685,
      "▁街道": 6686,
      "▁リゾ": 6687,
      "▁act": 6688,
      "▁著書": 6689,
      "▁発射": 6690,
      "ates": 6691,
      "フィック": 6692,
      "▁ヤマ": 6693,
      "▁ser": 6694,
      "▁あげる": 6695,
      "▁ヒー": 6696,
      "▁背中": 6697,
      "▁es": 6698,
      "▁ビタミン": 6699,
      "ugh": 6700,
      "ベルク": 6701,
      "▁中世": 6702,
      "▁コロン": 6703,
      "▁メロ": 6704,
      "▁関わら": 6705,
      "▁序": 6706,
      "▁北西": 6707,
      "▁出席": 6708,
      "▁記さ": 6709,
      "▁タンパク": 6710,
      "▁インディア": 6711,
      "-8": 6712,
      "▁特急": 6713,
      "▁5000": 6714,
      "▁800": 6715,
      "air": 6716,
      "▁オーナー": 6717,
      "▁歌っ": 6718,
      "ons": 6719,
      "▁グランド": 6720,
      "▁発信": 6721,
      "▁水分": 6722,
      "▁争い": 6723,
      "▁年金": 6724,
      "▁負傷": 6725,
      "▁出かけ": 6726,
      "テイン": 6727,
      "▁流通": 6728,
      "▁峠": 6729,
      "▁主体": 6730,
      "▁歴代": 6731,
      "▁政党": 6732,
      "デス": 6733,
      "▁無視": 6734,
      "▁静か": 6735,
      "▁serv": 6736,
      "▁グレー": 6737,
      "チョ": 6738,
      "▁live": 6739,
      "▁監視": 6740,
      "▁愛称": 6741,
      "▁椅": 6742,
      "▁直線": 6743,
      "▁切手": 6744,
      "()": 6745,
      "▁捜査": 6746,
      "▁レコー": 6747,
      "切れ": 6748,
      "▁寺院": 6749,
      "▁拝": 6750,
      "▁語り": 6751,
      "▁スピー": 6752,
      "▁160": 6753,
      "▁基づき": 6754,
      "▁ちゃい": 6755,
      "▁取扱": 6756,
      "▁滋": 6757,
      "▁上海": 6758,
      "▁ma": 6759,
      "▁ディスク": 6760,
      "▁8.": 6761,
      "▁人形": 6762,
      "▁1963": 6763,
      "▁構想": 6764,
      "▁貝": 6765,
      "/20": 6766,
      "▁キャッチ": 6767,
      "▁歩き": 6768,
      "▁締結": 6769,
      "▁岩手": 6770,
      "▁擁": 6771,
      "▁起動": 6772,
      "▁ラテン": 6773,
      "▁征": 6774,
      "▁ベルリン": 6775,
      "▁コメ": 6776,
      "▁占い": 6777,
      "▁椅子": 6778,
      "▁際し": 6779,
      "▁兵士": 6780,
      "▁セミナー": 6781,
      "▁月曜": 6782,
      "▁music": 6783,
      "▁沼": 6784,
      "▁your": 6785,
      "▁照明": 6786,
      "ull": 6787,
      "▁保守": 6788,
      "たら": 6789,
      "▁遠く": 6790,
      "▁思い出し": 6791,
      "▁岸": 6792,
      "▁藤原": 6793,
      "▁改修": 6794,
      "▁110": 6795,
      "▁本拠": 6796,
      "▁ヒロ": 6797,
      "フラ": 6798,
      "デア": 6799,
      "衛門": 6800,
      "▁傘下": 6801,
      "▁婚活": 6802,
      "▁しょ": 6803,
      "▁消防": 6804,
      "▁金利": 6805,
      "app": 6806,
      "受け": 6807,
      "▁カウンター": 6808,
      "▁近所": 6809,
      "▁函": 6810,
      "▁サイン": 6811,
      "▁避難": 6812,
      "▁ハム": 6813,
      "▁疾患": 6814,
      "▁衰": 6815,
      "▁中部": 6816,
      "▁工程": 6817,
      "▁共演": 6818,
      "▁捉": 6819,
      "▁復興": 6820,
      "▁睡": 6821,
      "▁ねー": 6822,
      "▁may": 6823,
      "▁アクセ": 6824,
      "▁診療": 6825,
      "▁over": 6826,
      "▁小林": 6827,
      "エイ": 6828,
      "▁所得": 6829,
      "▁誘導": 6830,
      "▁法学": 6831,
      "▁85": 6832,
      "▁ケン": 6833,
      "▁ボス": 6834,
      "str": 6835,
      "▁上手く": 6836,
      "▁ティー": 6837,
      "▁忍": 6838,
      "▁高知": 6839,
      "▁ディレ": 6840,
      "▁open": 6841,
      "▁てん": 6842,
      "付ける": 6843,
      "▁珍しい": 6844,
      "ゼルス": 6845,
      "▁タクシー": 6846,
      "▁ロス": 6847,
      "▁日中": 6848,
      "▁book": 6849,
      "bo": 6850,
      "▁歩く": 6851,
      "/10": 6852,
      "▁ラブ": 6853,
      "▁sa": 6854,
      "▁クラシック": 6855,
      "▁厚生": 6856,
      "▁1962": 6857,
      "▁荘": 6858,
      "センス": 6859,
      "▁鮮": 6860,
      "▁マッサ": 6861,
      "▁剥": 6862,
      "▁委託": 6863,
      "ッパ": 6864,
      "▁手間": 6865,
      "▁駅前": 6866,
      "プス": 6867,
      "▁デザイナー": 6868,
      "リーム": 6869,
      "▁現金": 6870,
      "▁テロ": 6871,
      "▁ドロ": 6872,
      "▁献": 6873,
      "ベット": 6874,
      "▁»": 6875,
      "▁亡くなっ": 6876,
      "▁北東": 6877,
      "▁nor": 6878,
      "ソー": 6879,
      "サイ": 6880,
      "▁外観": 6881,
      "▁交代": 6882,
      "▁限界": 6883,
      "▁生きる": 6884,
      "▁貸し": 6885,
      "▁アカウント": 6886,
      "▁王者": 6887,
      "▁海上": 6888,
      "▁反映": 6889,
      "ウェイ": 6890,
      "▁我が家": 6891,
      "▁なきゃ": 6892,
      "▁結論": 6893,
      "▁エジプト": 6894,
      "▁削減": 6895,
      "▁上がる": 6896,
      "▁絵画": 6897,
      "▁バレー": 6898,
      "▁met": 6899,
      "▁演技": 6900,
      "▁役所": 6901,
      "▁開く": 6902,
      "▁機動": 6903,
      "▁講演": 6904,
      "当て": 6905,
      "▁遅く": 6906,
      "▁ターミ": 6907,
      "▁再建": 6908,
      "▁周波": 6909,
      "▁妖": 6910,
      "▁取ら": 6911,
      "▁上がり": 6912,
      "▁bro": 6913,
      "ぎり": 6914,
      "▁ヒュー": 6915,
      "▁水素": 6916,
      "▁北朝": 6917,
      "回る": 6918,
      "▁異なっ": 6919,
      "▁東洋": 6920,
      "▁流し": 6921,
      "▁カトリック": 6922,
      "▁前身": 6923,
      "▁ミサイル": 6924,
      "リコ": 6925,
      "ドウ": 6926,
      "▁コス": 6927,
      "▁エコ": 6928,
      "▁修道": 6929,
      "カイ": 6930,
      "ばん": 6931,
      "▁菜": 6932,
      "▁フィリピン": 6933,
      "▁芳": 6934,
      "▁在住": 6935,
      "▁怖い": 6936,
      "ごろ": 6937,
      "▁学科": 6938,
      "▁不良": 6939,
      "イング": 6940,
      "▁ゴミ": 6941,
      "▁トルコ": 6942,
      "▁home": 6943,
      "▁スタンド": 6944,
      "▁菅": 6945,
      "▁コツ": 6946,
      "▁打率": 6947,
      "ルトン": 6948,
      "▁サーバー": 6949,
      "▁口座": 6950,
      "▁名付け": 6951,
      "▁初頭": 6952,
      "▁早め": 6953,
      "▁オレ": 6954,
      "▁ワシントン": 6955,
      "▁思考": 6956,
      "▁マリア": 6957,
      "▁プリント": 6958,
      "▁1947": 6959,
      "▁アプ": 6960,
      "ガリー": 6961,
      "ゴル": 6962,
      "▁詰め": 6963,
      "たん": 6964,
      "▁訴え": 6965,
      "リズム": 6966,
      "▁メモリ": 6967,
      "▁たまに": 6968,
      "▁定める": 6969,
      "クトル": 6970,
      "▁喜ん": 6971,
      "▁国境": 6972,
      "▁取り組ん": 6973,
      "▁叙": 6974,
      "▁絡": 6975,
      "▁スラ": 6976,
      "▁とく": 6977,
      "▁ソウル": 6978,
      "▁休憩": 6979,
      "▁ak": 6980,
      "▁調子": 6981,
      "▁近隣": 6982,
      "▁日程": 6983,
      "マル": 6984,
      "▁演劇": 6985,
      "▁往復": 6986,
      "▁自民": 6987,
      "▁全米": 6988,
      "▁死後": 6989,
      "▁3000": 6990,
      "▁スリー": 6991,
      "フォード": 6992,
      "▁空軍": 6993,
      "▁エンド": 6994,
      "▁徴": 6995,
      "▁66": 6996,
      "▁山梨": 6997,
      "▁西側": 6998,
      "▁gp": 6999,
      "▁やつ": 7000,
      "▁四国": 7001,
      "▁クイ": 7002,
      "▁テニス": 7003,
      "はん": 7004,
      "▁とん": 7005,
      "▁国勢": 7006,
      "▁比べる": 7007,
      "▁53": 7008,
      "▁html": 7009,
      "ンダム": 7010,
      "▁過ごす": 7011,
      "▁両者": 7012,
      "▁玄関": 7013,
      "▁無し": 7014,
      "▁衣装": 7015,
      "▁職人": 7016,
      "▁侵攻": 7017,
      "▁猛": 7018,
      "つく": 7019,
      "▁粒子": 7020,
      "▁泰": 7021,
      "▁high": 7022,
      "▁恋人": 7023,
      "▁95": 7024,
      "▁ぱ": 7025,
      "▁宣伝": 7026,
      "▁歩兵": 7027,
      "バス": 7028,
      "88": 7029,
      "▁定着": 7030,
      "▁1920": 7031,
      "▁ω": 7032,
      "▁増える": 7033,
      "▁空き": 7034,
      "▁上げる": 7035,
      "ピア": 7036,
      "▁下部": 7037,
      "▁250": 7038,
      "しん": 7039,
      "▁通る": 7040,
      "ek": 7041,
      "▁エンジニア": 7042,
      "▁何故": 7043,
      "▁cre": 7044,
      "▁ヤン": 7045,
      "▁関わる": 7046,
      "▁デバイス": 7047,
      "▁適し": 7048,
      "▁coun": 7049,
      "▁岳": 7050,
      "pg": 7051,
      "▁バトル": 7052,
      "▁拍": 7053,
      "▁1961": 7054,
      "▁レーベル": 7055,
      "▁冷蔵": 7056,
      "ライズ": 7057,
      "▁報酬": 7058,
      "▁駒": 7059,
      "ium": 7060,
      "▁混ぜ": 7061,
      "▁ワク": 7062,
      "寄せ": 7063,
      "▁ぴったり": 7064,
      "▁デモ": 7065,
      "▁役員": 7066,
      "▁sk": 7067,
      "▁マッサージ": 7068,
      "▁fx": 7069,
      "▁来年": 7070,
      "▁陳": 7071,
      "▁two": 7072,
      "ollow": 7073,
      "▁向い": 7074,
      "▁威": 7075,
      "▁支給": 7076,
      "-7": 7077,
      "▁聞こえ": 7078,
      "▁拘": 7079,
      "▁回避": 7080,
      "バラ": 7081,
      "▁プレート": 7082,
      "ッシ": 7083,
      "▁️": 7084,
      "▁埋め": 7085,
      "▁セラ": 7086,
      "▁1,000": 7087,
      "▁膜": 7088,
      "らさ": 7089,
      "▁1941": 7090,
      "we": 7091,
      "▁1943": 7092,
      "▁出品": 7093,
      "▁見れ": 7094,
      "▁兼ね": 7095,
      "▁通う": 7096,
      "▁酸素": 7097,
      "▁相撲": 7098,
      "▁著名": 7099,
      "▁急行": 7100,
      "▁ふる": 7101,
      "▁佐賀": 7102,
      "▁カート": 7103,
      "▁モンスター": 7104,
      "ely": 7105,
      "▁称し": 7106,
      "▁見せる": 7107,
      "off": 7108,
      "▁ネーム": 7109,
      "なう": 7110,
      "▁引越": 7111,
      "▁コール": 7112,
      "▁成り": 7113,
      "▁頻繁": 7114,
      "▁欄": 7115,
      "▁応用": 7116,
      "▁↑": 7117,
      "▁譲渡": 7118,
      "▁送ら": 7119,
      "▁マネージ": 7120,
      "pro": 7121,
      "▁反乱": 7122,
      "▁インテリア": 7123,
      "▁ワイド": 7124,
      "▁現れる": 7125,
      "▁プラット": 7126,
      "▁磨": 7127,
      "ゼン": 7128,
      "▁プロレス": 7129,
      "ッキング": 7130,
      "▁バカ": 7131,
      "ボー": 7132,
      "▁ユーロ": 7133,
      "ベーション": 7134,
      "▁胃": 7135,
      "▁一族": 7136,
      "▁実業": 7137,
      "▁チップ": 7138,
      "▁明るい": 7139,
      "▁1942": 7140,
      "▁mc": 7141,
      "▁著者": 7142,
      "▁噂": 7143,
      "▁だん": 7144,
      "▁育毛": 7145,
      "▁塗り": 7146,
      "clud": 7147,
      "▁到達": 7148,
      "▁正面": 7149,
      "フィール": 7150,
      "ロジー": 7151,
      "▁ターミナル": 7152,
      "▁食べ物": 7153,
      "▁刑事": 7154,
      "▁循": 7155,
      "▁行事": 7156,
      "▁妙": 7157,
      "▁スカイ": 7158,
      "▁ノン": 7159,
      "▁勢い": 7160,
      "▁1948": 7161,
      "▁あわせ": 7162,
      "▁訴訟": 7163,
      "▁加藤": 7164,
      "4.": 7165,
      "▁卓": 7166,
      "▁減っ": 7167,
      "ve": 7168,
      "▁ポルトガル": 7169,
      "▁迷惑": 7170,
      "▁八幡": 7171,
      "▁ペル": 7172,
      "▁1958": 7173,
      "▁セイ": 7174,
      "▁汁": 7175,
      "▁1959": 7176,
      "olog": 7177,
      "ハウ": 7178,
      "▁談": 7179,
      "▁バラエ": 7180,
      "▁パル": 7181,
      "▁古典": 7182,
      "▁62": 7183,
      "day": 7184,
      "▁時刻": 7185,
      "▁看板": 7186,
      "▁軍人": 7187,
      "▁ドーム": 7188,
      "▁ホット": 7189,
      "▁衛生": 7190,
      "ナップ": 7191,
      "ise": 7192,
      "▁睡眠": 7193,
      "▁上野": 7194,
      "▁週刊": 7195,
      "づくり": 7196,
      "▁勲": 7197,
      "▁ドゥ": 7198,
      "▁イチ": 7199,
      "ベート": 7200,
      "▁朱": 7201,
      "ateg": 7202,
      "▁艇": 7203,
      "▁リク": 7204,
      "▁棒": 7205,
      "▁ビーチ": 7206,
      "▁盛ん": 7207,
      "▁ほんと": 7208,
      "▁1946": 7209,
      "▁シューズ": 7210,
      "97": 7211,
      "▁傍": 7212,
      "チル": 7213,
      "ッテ": 7214,
      "▁テキスト": 7215,
      "ann": 7216,
      "▁アルコール": 7217,
      "▁怒り": 7218,
      "▁綱": 7219,
      "▁bas": 7220,
      "▁綿": 7221,
      "▁二十": 7222,
      "▁セキュリティ": 7223,
      "▁アタ": 7224,
      "▁僧": 7225,
      "クソン": 7226,
      "▁くださっ": 7227,
      "▁4)": 7228,
      "▁ショック": 7229,
      "▁起源": 7230,
      "▁ツイート": 7231,
      "▁週末": 7232,
      "▁末期": 7233,
      "▁1949": 7234,
      "▁ラグビー": 7235,
      "▁叶": 7236,
      "▁ロン": 7237,
      "▁モスク": 7238,
      "▁med": 7239,
      "▁語る": 7240,
      "▁描写": 7241,
      "かん": 7242,
      "300": 7243,
      "▁love": 7244,
      "▁ラウンド": 7245,
      "__": 7246,
      "itt": 7247,
      "▁嫁": 7248,
      "▁魂": 7249,
      "▁怪我": 7250,
      "▁占め": 7251,
      "▁休止": 7252,
      "▁単語": 7253,
      "▁締め": 7254,
      "ケート": 7255,
      "▁エクス": 7256,
      "▁抑制": 7257,
      "▁込め": 7258,
      "▁警備": 7259,
      "alse": 7260,
      "▁失わ": 7261,
      "▁シャー": 7262,
      "▁バスケット": 7263,
      "▁だろ": 7264,
      "▁搬": 7265,
      "▁配慮": 7266,
      "▁関与": 7267,
      "▁渡し": 7268,
      "▁遊ん": 7269,
      "▁根拠": 7270,
      "▁コムーネ": 7271,
      "▁北朝鮮": 7272,
      "▁76": 7273,
      "fc": 7274,
      "▁ポップ": 7275,
      "▁攻め": 7276,
      "▁1955": 7277,
      "▁帳": 7278,
      "▁循環": 7279,
      "▁飽": 7280,
      "▁閉じ": 7281,
      "▁ひど": 7282,
      "▁申し上げ": 7283,
      "▁笑っ": 7284,
      "▁複合": 7285,
      "払い": 7286,
      "▁眺め": 7287,
      "▁po": 7288,
      "▁ゴールデン": 7289,
      "...": 7290,
      "▁10.": 7291,
      "▁デス": 7292,
      "▁ドラフト": 7293,
      "▁認証": 7294,
      "▁溜": 7295,
      "▁仮想": 7296,
      "ポール": 7297,
      "ミック": 7298,
      "▁離脱": 7299,
      "▁暴力": 7300,
      "stem": 7301,
      "▁ソビエ": 7302,
      "hed": 7303,
      "▁ガンダム": 7304,
      "▁国王": 7305,
      "▁描き": 7306,
      "▁雷": 7307,
      "▁シカ": 7308,
      "▁ペア": 7309,
      "タイ": 7310,
      "▁見解": 7311,
      "▁冒険": 7312,
      "▁サンド": 7313,
      "pr": 7314,
      "▁マップ": 7315,
      "▁フリ": 7316,
      "▁王子": 7317,
      "▁フォーム": 7318,
      "アイ": 7319,
      "▁ふう": 7320,
      "▁1956": 7321,
      "▁せっかく": 7322,
      "▁乗せ": 7323,
      "▁火災": 7324,
      "▁実力": 7325,
      "▁プレミアム": 7326,
      "▁励": 7327,
      "▁大賞": 7328,
      "▁守り": 7329,
      "▁シフト": 7330,
      "▁じょう": 7331,
      "▁伏": 7332,
      "▁盆": 7333,
      "▁オペラ": 7334,
      "ux": 7335,
      "▁エステ": 7336,
      "▁ソビエト": 7337,
      "▁学区": 7338,
      "▁詳しい": 7339,
      "▁景色": 7340,
      "▁プロデュース": 7341,
      "▁つと": 7342,
      "▁昇進": 7343,
      "▁推薦": 7344,
      "▁振る": 7345,
      "▁帰る": 7346,
      "▁浴び": 7347,
      "▁新築": 7348,
      "▁検証": 7349,
      "4)": 7350,
      "▁宅配": 7351,
      "▁蒸気": 7352,
      "▁幅広い": 7353,
      "▁南東": 7354,
      "▁煙": 7355,
      "net": 7356,
      "▁入ら": 7357,
      "▁リゾート": 7358,
      "▁ストリート": 7359,
      "▁サル": 7360,
      "▁褒": 7361,
      "マイ": 7362,
      "▁ン": 7363,
      "▁当たっ": 7364,
      "▁楽しめ": 7365,
      "▁すみ": 7366,
      "▁金沢": 7367,
      "▁返し": 7368,
      "▁エンター": 7369,
      "▁拳": 7370,
      "▁新しく": 7371,
      "▁aa": 7372,
      "▁ge": 7373,
      "▁狭い": 7374,
      "▁隠し": 7375,
      "▁ブーム": 7376,
      "▁びっくり": 7377,
      "▁有力": 7378,
      "▁最多": 7379,
      "▁当店": 7380,
      "▁単行": 7381,
      "▁狂": 7382,
      "enc": 7383,
      "▁移り": 7384,
      "▁殺人": 7385,
      "▁ent": 7386,
      "▁fil": 7387,
      "▁分岐": 7388,
      "▁ごく": 7389,
      "▁赴": 7390,
      "▁実用": 7391,
      "▁喜び": 7392,
      "▁合同": 7393,
      "▁同意": 7394,
      "▁サラダ": 7395,
      "▁潤": 7396,
      "▁レン": 7397,
      "テーション": 7398,
      "▁坪": 7399,
      "▁pd": 7400,
      "▁葛": 7401,
      "▁ポン": 7402,
      "▁わざ": 7403,
      "▁人員": 7404,
      "▁史上": 7405,
      "▁ストレ": 7406,
      "▁遠征": 7407,
      "▁ステーション": 7408,
      "▁ローズ": 7409,
      "▁ドー": 7410,
      "▁改名": 7411,
      "▁時給": 7412,
      "▁ロサン": 7413,
      "▁濃度": 7414,
      "▁護衛": 7415,
      "▁店内": 7416,
      "▁170": 7417,
      "▁アニメーション": 7418,
      "▁沿岸": 7419,
      "▁権力": 7420,
      "▁観点": 7421,
      "▁コンパクト": 7422,
      "▁顧問": 7423,
      "▁書店": 7424,
      "▁ロサンゼルス": 7425,
      "▁ライダー": 7426,
      "▁越し": 7427,
      "▁組ん": 7428,
      "▁本物": 7429,
      "▁ストア": 7430,
      "span": 7431,
      "▁•": 7432,
      "▁決意": 7433,
      "ヌス": 7434,
      "▁上陸": 7435,
      "▁いきなり": 7436,
      "ャン": 7437,
      "▁配布": 7438,
      "▁いかに": 7439,
      "▁牡": 7440,
      "▁混合": 7441,
      "▁加速": 7442,
      "▁弥": 7443,
      "▁つながる": 7444,
      "▁遮": 7445,
      ",6": 7446,
      "▁other": 7447,
      "▁多分": 7448,
      "be": 7449,
      "▁sou": 7450,
      "▁迎える": 7451,
      "▁会っ": 7452,
      "▁他社": 7453,
      "▁エディ": 7454,
      "▁キン": 7455,
      "▁碑": 7456,
      "▁啓": 7457,
      "ボル": 7458,
      "▁係る": 7459,
      "▁実装": 7460,
      "テッド": 7461,
      "▁言及": 7462,
      "▁西武": 7463,
      "サリー": 7464,
      "▁ジャズ": 7465,
      "▁起こり": 7466,
      "▁斎": 7467,
      "▁record": 7468,
      "400": 7469,
      "の中": 7470,
      "▁メトロ": 7471,
      "▁キャッシング": 7472,
      "▁ベビー": 7473,
      "ebook": 7474,
      "▁広げ": 7475,
      "▁立地": 7476,
      "▁開放": 7477,
      "▁安倍": 7478,
      "▁申し訳": 7479,
      "▁シルバー": 7480,
      "▁突破": 7481,
      "▁辛い": 7482,
      "▁兆": 7483,
      "▁トランス": 7484,
      "▁見つける": 7485,
      "iel": 7486,
      "▁興行": 7487,
      "▁ty": 7488,
      "▁軽量": 7489,
      "ahoo": 7490,
      "▁朝食": 7491,
      "▁gt": 7492,
      "ージェ": 7493,
      "▁膝": 7494,
      "55": 7495,
      "まし": 7496,
      "稲田": 7497,
      "▁数々": 7498,
      "▁アイデア": 7499,
      "▁石油": 7500,
      "スカ": 7501,
      "▁黒い": 7502,
      "▁spec": 7503,
      "▁回り": 7504,
      "▁合わ": 7505,
      "▁獣": 7506,
      "▁コル": 7507,
      "▁嘘": 7508,
      "▁邦": 7509,
      "▁屈": 7510,
      "▁創造": 7511,
      "ko": 7512,
      "▁◇": 7513,
      "▁半ば": 7514,
      "▁陶": 7515,
      "▁トマト": 7516,
      "▁樹脂": 7517,
      "▁動く": 7518,
      "▁中身": 7519,
      "▁図る": 7520,
      "▁柏": 7521,
      "▁ロケット": 7522,
      "っちゃ": 7523,
      "▁専攻": 7524,
      "▁広がる": 7525,
      "▁通行": 7526,
      "▁乃": 7527,
      "▁マラソン": 7528,
      "▁かい": 7529,
      "▁除い": 7530,
      "▁ドリンク": 7531,
      "▁創立": 7532,
      "▁知らせ": 7533,
      "▁昆": 7534,
      "ouse": 7535,
      "▁掲げ": 7536,
      "ローチ": 7537,
      "▁ウク": 7538,
      "▁気づい": 7539,
      "▁世の中": 7540,
      "▁にくく": 7541,
      "▁ライセンス": 7542,
      "▁とこ": 7543,
      "▁パパ": 7544,
      "▁キレイ": 7545,
      "▁there": 7546,
      "▁体力": 7547,
      "▁教科": 7548,
      "▁fm": 7549,
      "ビル": 7550,
      "▁甘い": 7551,
      "▁出会っ": 7552,
      "▁有機": 7553,
      "▁新品": 7554,
      "▁ぷ": 7555,
      "▁戦隊": 7556,
      "▁騎士": 7557,
      "ーー": 7558,
      "回っ": 7559,
      "▁ウェブサイト": 7560,
      "▁子育": 7561,
      "▁記し": 7562,
      "▁ジャック": 7563,
      "▁鍛": 7564,
      "▁war": 7565,
      "▁早稲田": 7566,
      "▁経路": 7567,
      "▁1952": 7568,
      "▁ボラン": 7569,
      "▁区画": 7570,
      "▁デー": 7571,
      "▁ハンガリー": 7572,
      "ベルト": 7573,
      "▁後方": 7574,
      "▁ファースト": 7575,
      "▁マーケ": 7576,
      "▁軟": 7577,
      "▁グラス": 7578,
      "▁つれ": 7579,
      "▁教員": 7580,
      "▁業績": 7581,
      "馴染": 7582,
      "▁指し": 7583,
      "▁主力": 7584,
      "▁bar": 7585,
      "▁修了": 7586,
      "▁ゴー": 7587,
      "▁プログラ": 7588,
      "▁克": 7589,
      "▁司会": 7590,
      "▁奨": 7591,
      "▁sub": 7592,
      "▁been": 7593,
      "▁たか": 7594,
      "▁目安": 7595,
      "▁タオル": 7596,
      "▁ギャラ": 7597,
      "▁パウ": 7598,
      "▁滋賀": 7599,
      "▁推測": 7600,
      "▁剛": 7601,
      "ied": 7602,
      "▁次男": 7603,
      "▁隙": 7604,
      "一郎": 7605,
      "▁会見": 7606,
      "87": 7607,
      "▁聖書": 7608,
      "レンス": 7609,
      "▁when": 7610,
      "mb": 7611,
      "▁ねえ": 7612,
      "▁ドラゴン": 7613,
      "▁アム": 7614,
      "▁細かい": 7615,
      "▁char": 7616,
      "▁放置": 7617,
      "▁侯": 7618,
      "▁コンテ": 7619,
      "▁一旦": 7620,
      "▁こっち": 7621,
      "▁ms": 7622,
      "▁戦国": 7623,
      "▁凝": 7624,
      "▁1954": 7625,
      "▁批評": 7626,
      "▁ローカル": 7627,
      "▁全面": 7628,
      "▁aut": 7629,
      "▁ジェット": 7630,
      "ode": 7631,
      "ケン": 7632,
      "▁公認": 7633,
      "▁座席": 7634,
      "▁イスラエル": 7635,
      "▁須": 7636,
      "▁振興": 7637,
      "▁諦め": 7638,
      "レックス": 7639,
      "▁フェア": 7640,
      "▁見直し": 7641,
      "▁あらか": 7642,
      "▁神話": 7643,
      "ルトラ": 7644,
      "▁巨人": 7645,
      "▁ハル": 7646,
      "▁発音": 7647,
      "チス": 7648,
      "▁school": 7649,
      "▁見事": 7650,
      "▁mic": 7651,
      "▁愛媛": 7652,
      "▁子育て": 7653,
      "▁審議": 7654,
      "渡し": 7655,
      "▁角度": 7656,
      "▁進める": 7657,
      "▁pres": 7658,
      "▁000": 7659,
      "▁けい": 7660,
      "次郎": 7661,
      "▁マガ": 7662,
      "▁コンクリート": 7663,
      "▁ボーナス": 7664,
      "82": 7665,
      "▁家電": 7666,
      "▁1957": 7667,
      "▁ろ": 7668,
      "▁下さ": 7669,
      "▁堅": 7670,
      "▁関節": 7671,
      "gr": 7672,
      "▁一応": 7673,
      "▁急速": 7674,
      "▁たん": 7675,
      "▁犠": 7676,
      "シル": 7677,
      "▁乙": 7678,
      "▁現存": 7679,
      "▁容器": 7680,
      "▁ごろ": 7681,
      "▁外側": 7682,
      "ys": 7683,
      "▁行なっ": 7684,
      "▁エース": 7685,
      "▁学者": 7686,
      "▁胡": 7687,
      "▁入場": 7688,
      "▁のり": 7689,
      "▁じゃあ": 7690,
      "▁中山": 7691,
      "▁アロ": 7692,
      "▁エアコン": 7693,
      "▁ラム": 7694,
      "▁缶": 7695,
      "ドゥ": 7696,
      "▁武装": 7697,
      "▁最小": 7698,
      "▁隔": 7699,
      "▁避ける": 7700,
      "▁ゲート": 7701,
      "▁出荷": 7702,
      "▁銀座": 7703,
      "▁評論": 7704,
      "/11": 7705,
      "▁昌": 7706,
      "▁77": 7707,
      "▁がんば": 7708,
      "▁スムーズ": 7709,
      "▁酷": 7710,
      "▁侵入": 7711,
      "▁61": 7712,
      "▁鳥取": 7713,
      "▁タワー": 7714,
      "▁ウル": 7715,
      "▁アント": 7716,
      "キア": 7717,
      "▁かしら": 7718,
      "合わ": 7719,
      "▁親子": 7720,
      "▁押さ": 7721,
      "▁yahoo": 7722,
      "ッキリ": 7723,
      "oto": 7724,
      "▁ゆえ": 7725,
      "▁制覇": 7726,
      "▁北側": 7727,
      "▁除去": 7728,
      "▁戦士": 7729,
      "▁モチーフ": 7730,
      "▁つながり": 7731,
      "▁しろ": 7732,
      "▁get": 7733,
      "▁まん": 7734,
      "▁ディスプ": 7735,
      "▁5%": 7736,
      "▁慰": 7737,
      "▁軽い": 7738,
      "▁座っ": 7739,
      "▁付与": 7740,
      "▁ゆる": 7741,
      "||0||": 7742,
      "▁憧": 7743,
      "▁モニター": 7744,
      "▁1953": 7745,
      "('": 7746,
      "▁密度": 7747,
      "▁三角": 7748,
      "▁相性": 7749,
      "▁クリーニング": 7750,
      "▁改め": 7751,
      "▁△": 7752,
      "▁戦う": 7753,
      "▁立ち上げ": 7754,
      "▁レオ": 7755,
      "ージー": 7756,
      "▁選定": 7757,
      "フィー": 7758,
      "▁加熱": 7759,
      "▁辺り": 7760,
      "▁あらかじめ": 7761,
      "▁暫": 7762,
      "ます": 7763,
      "▁渡辺": 7764,
      "やり": 7765,
      "▁%": 7766,
      "カラ": 7767,
      "▁帰宅": 7768,
      "▁難しく": 7769,
      "atch": 7770,
      "▁配合": 7771,
      "▁だし": 7772,
      "▁授与": 7773,
      "▁ッ": 7774,
      "(0)": 7775,
      "▁ret": 7776,
      "▁偉": 7777,
      "▁漬": 7778,
      "▁パスタ": 7779,
      "▁囲ま": 7780,
      "▁面接": 7781,
      "▁軽減": 7782,
      "▁9.": 7783,
      "▁この頃": 7784,
      "▁リニュー": 7785,
      "▁wr": 7786,
      "▁loc": 7787,
      "▁介し": 7788,
      "▁ec": 7789,
      "▁コーディ": 7790,
      "▁坊": 7791,
      "min": 7792,
      "▁出走": 7793,
      "▁条例": 7794,
      "ークル": 7795,
      "ement": 7796,
      "▁媒": 7797,
      "▁切り替え": 7798,
      "▁訪れる": 7799,
      "▁全長": 7800,
      "▁フィット": 7801,
      "▁保健": 7802,
      "▁重い": 7803,
      "▁カテゴリー": 7804,
      "▁基盤": 7805,
      "▁ブラウ": 7806,
      "ーナメント": 7807,
      "▁腫": 7808,
      "▁大字": 7809,
      "▁含ん": 7810,
      "▁ボン": 7811,
      "ブス": 7812,
      "ーマー": 7813,
      "▁例外": 7814,
      "▁vs": 7815,
      "▁腐": 7816,
      "▁シリア": 7817,
      "▁作目": 7818,
      "▁1939": 7819,
      "▁浩": 7820,
      "▁住み": 7821,
      "▁伸ばし": 7822,
      "▁桁": 7823,
      "▁浪": 7824,
      "▁香川": 7825,
      "▁選抜": 7826,
      "▁リニューアル": 7827,
      "▁←": 7828,
      "▁住まい": 7829,
      "▁ワイ": 7830,
      "▁付ける": 7831,
      "▁老人": 7832,
      "▁医者": 7833,
      "▁平安": 7834,
      "▁マイナス": 7835,
      "▁パイロット": 7836,
      "▁apple": 7837,
      "▁痩": 7838,
      "hy": 7839,
      "▁ポケ": 7840,
      "▁井上": 7841,
      "▁醤": 7842,
      "オス": 7843,
      "▁格闘": 7844,
      "▁クーポン": 7845,
      "▁ウルトラ": 7846,
      "▁sns": 7847,
      "だん": 7848,
      "▁バリ": 7849,
      "▁装飾": 7850,
      "▁スケジュール": 7851,
      "▁bs": 7852,
      "ブレ": 7853,
      "▁強調": 7854,
      "▁去年": 7855,
      "roid": 7856,
      "▁土産": 7857,
      "▁int": 7858,
      "▁沙": 7859,
      "/12": 7860,
      "▁アピ": 7861,
      "▁鑑定": 7862,
      "ヴァー": 7863,
      "▁ear": 7864,
      "▁針": 7865,
      "▁動い": 7866,
      "ason": 7867,
      "▁ウッド": 7868,
      "su": 7869,
      "jp": 7870,
      "▁住居": 7871,
      "▁報じ": 7872,
      "▁閣": 7873,
      "▁単身": 7874,
      "▁幹部": 7875,
      "▁医薬": 7876,
      "▁ボル": 7877,
      "▁fif": 7878,
      "▁ぼく": 7879,
      "▁肺": 7880,
      "▁how": 7881,
      "▁下げ": 7882,
      "▁関わっ": 7883,
      "▁伴っ": 7884,
      "▁振動": 7885,
      "▁上司": 7886,
      "▁上り": 7887,
      "▁手順": 7888,
      "▁気象": 7889,
      "▁即日": 7890,
      "any": 7891,
      "▁電鉄": 7892,
      "▁乗る": 7893,
      "▁峰": 7894,
      "▁双方": 7895,
      "▁給与": 7896,
      "▁有限": 7897,
      "▁ダイヤモンド": 7898,
      "▁ウィン": 7899,
      "▁inc": 7900,
      "ベン": 7901,
      "▁ボトル": 7902,
      "▁接し": 7903,
      "▁マーケティング": 7904,
      "▁1951": 7905,
      "▁ミュージシャン": 7906,
      "▁妨": 7907,
      "ホン": 7908,
      "▁モンゴル": 7909,
      "▁聴い": 7910,
      "ジョ": 7911,
      "▁池田": 7912,
      "アント": 7913,
      "ネシア": 7914,
      "▁外科": 7915,
      "▁薄い": 7916,
      "フス": 7917,
      "▁付き合い": 7918,
      "▁並べ": 7919,
      "▁養子": 7920,
      "▁トーナメント": 7921,
      "▁闇": 7922,
      "▁che": 7923,
      "▁publ": 7924,
      "▁打撃": 7925,
      "ジュアル": 7926,
      "▁今週": 7927,
      "▁占める": 7928,
      "▁楽団": 7929,
      "▁反射": 7930,
      "▁under": 7931,
      "▁dec": 7932,
      "▁補給": 7933,
      "▁反発": 7934,
      "▁includ": 7935,
      "▁一環": 7936,
      "▁学術": 7937,
      "▁63": 7938,
      "▁一連": 7939,
      "▁在学": 7940,
      "▁晴れ": 7941,
      "▁行こう": 7942,
      "ins": 7943,
      "▁モール": 7944,
      "▁代替": 7945,
      "▁68": 7946,
      "▁オープニング": 7947,
      "ーパー": 7948,
      "▁布団": 7949,
      "▁follow": 7950,
      "▁高める": 7951,
      "▁ドラム": 7952,
      "▁体系": 7953,
      "▁先頭": 7954,
      "▁クラウド": 7955,
      "▁寂": 7956,
      "▁守護": 7957,
      "▁犠牲": 7958,
      "ームズ": 7959,
      "▁ファンタ": 7960,
      "▁招待": 7961,
      "▁どころ": 7962,
      "酒屋": 7963,
      "▁居酒屋": 7964,
      "▁renta": 7965,
      "▁ミネ": 7966,
      "ae": 7967,
      "▁財務": 7968,
      "▁推移": 7969,
      "▁寒い": 7970,
      "▁劇団": 7971,
      "シュタ": 7972,
      "▁bet": 7973,
      "そろ": 7974,
      "くし": 7975,
      "▁交響": 7976,
      "ious": 7977,
      "▁創作": 7978,
      "▁新鮮": 7979,
      "フィア": 7980,
      "▁粗": 7981,
      "えて": 7982,
      "▁増やし": 7983,
      "▁前期": 7984,
      "▁system": 7985,
      "▁参議": 7986,
      "▁大将": 7987,
      "▁ひろ": 7988,
      "▁一言": 7989,
      "▁畳": 7990,
      "▁りん": 7991,
      "▁ディスプレイ": 7992,
      "つける": 7993,
      "▁ヴァン": 7994,
      "▁宜": 7995,
      "▁130": 7996,
      "▁sf": 7997,
      "▁ジョー": 7998,
      "▁駅舎": 7999,
      "▁溢": 8000,
      "▁東側": 8001,
      "▁キャンパス": 8002,
      "▁爪": 8003,
      "▁電圧": 8004,
      "▁相対": 8005,
      "▁叫": 8006,
      "▁灰": 8007,
      "▁抜き": 8008,
      "▁摩": 8009,
      "▁プロモ": 8010,
      "▁どん": 8011,
      "ドロ": 8012,
      "▁ドキュ": 8013,
      "▁明るく": 8014,
      "▁ごめん": 8015,
      "▁手軽": 8016,
      "▁幸い": 8017,
      "▁ウォー": 8018,
      "▁ミラ": 8019,
      "▁夜間": 8020,
      "▁att": 8021,
      "▁漂": 8022,
      "▁exp": 8023,
      "▁入口": 8024,
      "▁er": 8025,
      "▁醤油": 8026,
      "▁pop": 8027,
      "▁武田": 8028,
      "▁スコア": 8029,
      "▁mark": 8030,
      "▁グローバル": 8031,
      "att": 8032,
      "▁味わい": 8033,
      "▁年収": 8034,
      "▁シンガ": 8035,
      "▁隠れ": 8036,
      "▁脱出": 8037,
      "▁催": 8038,
      "▁早速": 8039,
      "ンプー": 8040,
      "▁崇": 8041,
      "▁虚": 8042,
      "▁中期": 8043,
      "▁学年": 8044,
      "▁辞め": 8045,
      "▁国土": 8046,
      "イヤル": 8047,
      "▁質量": 8048,
      "▁team": 8049,
      "▁紋": 8050,
      "▁要する": 8051,
      "ames": 8052,
      "▁手前": 8053,
      "let": 8054,
      "▁リズム": 8055,
      "▁ウエ": 8056,
      "▁品種": 8057,
      "▁スカート": 8058,
      "▁プライベート": 8059,
      "▁即位": 8060,
      "▁支店": 8061,
      "いち": 8062,
      "▁ラスト": 8063,
      "▁山頂": 8064,
      "▁扇": 8065,
      "▁逆転": 8066,
      "▁邸": 8067,
      "▁部位": 8068,
      "▁イスラム": 8069,
      "▁フォル": 8070,
      "ican": 8071,
      "▁ナポ": 8072,
      "uring": 8073,
      "▁収穫": 8074,
      "▁子孫": 8075,
      "▁後者": 8076,
      "▁プロダクション": 8077,
      "▁正月": 8078,
      "▁水道": 8079,
      "▁時々": 8080,
      "▁修復": 8081,
      "▁スケート": 8082,
      "▁炉": 8083,
      "▁不正": 8084,
      "▁主流": 8085,
      "▁支部": 8086,
      "▁援助": 8087,
      "▁ep": 8088,
      "▁facebook": 8089,
      "▁set": 8090,
      "▁カ月": 8091,
      "▁ワー": 8092,
      "▁1937": 8093,
      "▁86": 8094,
      "▁スクリーン": 8095,
      "▁引い": 8096,
      "▁取り戻": 8097,
      "▁殆": 8098,
      "▁放映": 8099,
      "▁破産": 8100,
      "▁強度": 8101,
      "▁val": 8102,
      "▁若手": 8103,
      "▁軍団": 8104,
      "▁溝": 8105,
      "gan": 8106,
      "▁寄付": 8107,
      "▁並行": 8108,
      "▁about": 8109,
      "▁届い": 8110,
      "▁スティー": 8111,
      "▁こい": 8112,
      "▁敗北": 8113,
      "▁帽": 8114,
      "▁虎": 8115,
      "▁イヤ": 8116,
      "上がる": 8117,
      "▁\",\"": 8118,
      "▁心臓": 8119,
      "▁殺し": 8120,
      "ldk": 8121,
      "▁桂": 8122,
      "▁西洋": 8123,
      "▁ショット": 8124,
      "▁なれる": 8125,
      "▁vis": 8126,
      "▁手作り": 8127,
      "▁ロバート": 8128,
      "▁女王": 8129,
      "ビリ": 8130,
      "lo": 8131,
      "▁弦": 8132,
      "56": 8133,
      "▁67": 8134,
      "フォン": 8135,
      "ぶり": 8136,
      "ニウム": 8137,
      "▁穏": 8138,
      "レード": 8139,
      "89": 8140,
      "▁現行": 8141,
      "▁短く": 8142,
      "▁嵐": 8143,
      "▁奴隷": 8144,
      "▁原料": 8145,
      "81": 8146,
      "▁噛": 8147,
      ":00~": 8148,
      "▁こな": 8149,
      "▁まさか": 8150,
      "▁繁殖": 8151,
      "▁つながっ": 8152,
      "▁700": 8153,
      "▁デート": 8154,
      "▁収益": 8155,
      "▁フォロー": 8156,
      "▁ノース": 8157,
      "▁水準": 8158,
      "ノール": 8159,
      "▁ニュ": 8160,
      "▁待つ": 8161,
      "▁バラエティ": 8162,
      "▁斬": 8163,
      "▁主婦": 8164,
      "▁好評": 8165,
      "▁忙しい": 8166,
      "▁アプローチ": 8167,
      "▁炭素": 8168,
      "▁ソン": 8169,
      "▁決まり": 8170,
      "▁装甲": 8171,
      "▁無人": 8172,
      "▁入居": 8173,
      "▁皿": 8174,
      "▁クロー": 8175,
      "▁レコーディング": 8176,
      "▁調達": 8177,
      "▁ウクライナ": 8178,
      "▁ごう": 8179,
      "ative": 8180,
      "▁我慢": 8181,
      "▁空い": 8182,
      "▁中野": 8183,
      "▁孔": 8184,
      "de": 8185,
      "▁太郎": 8186,
      "▁少数": 8187,
      "▁バイオ": 8188,
      "▁直径": 8189,
      "▁受け継": 8190,
      "▁経っ": 8191,
      "▁ターン": 8192,
      "▁邪魔": 8193,
      "▁5,": 8194,
      "▁私立": 8195,
      "▁緩和": 8196,
      "▁記号": 8197,
      "▁ニーズ": 8198,
      "▁変形": 8199,
      "▁借りる": 8200,
      "▁ゾーン": 8201,
      "▁窓口": 8202,
      "▁森林": 8203,
      "▁わたり": 8204,
      "▁もり": 8205,
      "▁符": 8206,
      "▁南側": 8207,
      "▁短縮": 8208,
      "▁飼育": 8209,
      "メンタ": 8210,
      "▁end": 8211,
      "▁クール": 8212,
      "▁行列": 8213,
      "▁プレス": 8214,
      "image": 8215,
      "▁戦線": 8216,
      "メル": 8217,
      "▁ng": 8218,
      "ナルド": 8219,
      "▁マレー": 8220,
      "▁フェル": 8221,
      "▁斉": 8222,
      "▁創刊": 8223,
      "▁完璧": 8224,
      "▁テイ": 8225,
      "▁唱": 8226,
      "▁冷凍": 8227,
      "リウス": 8228,
      "▁スキン": 8229,
      "▁発掘": 8230,
      "▁ウォーター": 8231,
      "ヘン": 8232,
      "▁マガジン": 8233,
      "ッハ": 8234,
      "▁fa": 8235,
      "▁改札": 8236,
      "▁仲良": 8237,
      "▁驚い": 8238,
      "▁適当": 8239,
      "▁抜群": 8240,
      "▁自主": 8241,
      "テナンス": 8242,
      "々木": 8243,
      "▁良好": 8244,
      "▁有利": 8245,
      "▁1936": 8246,
      "▁シャンプー": 8247,
      "▁国産": 8248,
      "▁シンガポール": 8249,
      "▁損傷": 8250,
      "▁戦っ": 8251,
      "▁夫人": 8252,
      "▁袖": 8253,
      "▁潮": 8254,
      "ズル": 8255,
      "▁テクノ": 8256,
      "▁bo": 8257,
      "▁成人": 8258,
      "ギュア": 8259,
      "▁恐怖": 8260,
      "▁洗い": 8261,
      "チュー": 8262,
      "▁襲撃": 8263,
      "▁瀬戸": 8264,
      "▁day": 8265,
      "▁cap": 8266,
      "▁ゆく": 8267,
      "▁サンプル": 8268,
      "インド": 8269,
      "▁ビー": 8270,
      "▁受講": 8271,
      "▁入荷": 8272,
      "▁ユース": 8273,
      "▁グルメ": 8274,
      "▁庄": 8275,
      "▁土日": 8276,
      "▁湧": 8277,
      "▁推奨": 8278,
      "▁アクセサリー": 8279,
      "▁殆ど": 8280,
      "▁排出": 8281,
      "▁称さ": 8282,
      "▁間隔": 8283,
      "▁一瞬": 8284,
      "カリ": 8285,
      "づけ": 8286,
      "▁カツ": 8287,
      "ee": 8288,
      "nd": 8289,
      "▁ガーデン": 8290,
      "▁96": 8291,
      "▁コーデ": 8292,
      "▁デメ": 8293,
      "▁予め": 8294,
      "▁短編": 8295,
      "▁暦": 8296,
      "▁ニン": 8297,
      "▁線路": 8298,
      "ニスト": 8299,
      "ily": 8300,
      "▁柔道": 8301,
      "▁サークル": 8302,
      "▁同僚": 8303,
      "▁調節": 8304,
      "▁起こす": 8305,
      "▁瑞": 8306,
      "▁ml": 8307,
      "▁そろそろ": 8308,
      "▁̄": 8309,
      "▁但": 8310,
      "▁1938": 8311,
      "▁エントリー": 8312,
      "ウッド": 8313,
      "line": 8314,
      "▁間違っ": 8315,
      "▁権限": 8316,
      "テインメント": 8317,
      "▁植え": 8318,
      "▁痛い": 8319,
      "▁life": 8320,
      "▁縫": 8321,
      "▁つま": 8322,
      "▁寿司": 8323,
      "▁撤去": 8324,
      "▁歌う": 8325,
      "▁市販": 8326,
      "▁ボーカル": 8327,
      "▁芸人": 8328,
      "プター": 8329,
      "りゃ": 8330,
      "▁棋": 8331,
      "▁泥": 8332,
      "▁懸念": 8333,
      "▁rel": 8334,
      "▁一貫": 8335,
      "ince": 8336,
      "▁メタル": 8337,
      "▁はじめて": 8338,
      "▁錦": 8339,
      "▁univers": 8340,
      "▁アレル": 8341,
      "▁串": 8342,
      "▁セッション": 8343,
      "▁消し": 8344,
      "▁前方": 8345,
      "▁カレン": 8346,
      "▁釈": 8347,
      "▁リビング": 8348,
      "▁手伝い": 8349,
      "▁沿革": 8350,
      "▁サーバ": 8351,
      "▁表彰": 8352,
      "▁雑貨": 8353,
      "▁電波": 8354,
      "▁作れ": 8355,
      "ute": 8356,
      "▁砂糖": 8357,
      "▁ブライ": 8358,
      "▁メンテナンス": 8359,
      "▁増し": 8360,
      "▁消化": 8361,
      "by": 8362,
      "▁泣き": 8363,
      "▁モスクワ": 8364,
      "▁アピール": 8365,
      "▁ギリシア": 8366,
      "▁人事": 8367,
      "▁ベルギー": 8368,
      "▁識": 8369,
      "▁cons": 8370,
      "oci": 8371,
      "兵衛": 8372,
      "ウォ": 8373,
      "ストロ": 8374,
      "▁安打": 8375,
      "▁頂け": 8376,
      "▁来日": 8377,
      "▁戦艦": 8378,
      "▁モル": 8379,
      "▁被災": 8380,
      "▁世間": 8381,
      "▁洗浄": 8382,
      "ific": 8383,
      "▁蘭": 8384,
      "▁千代": 8385,
      "▁win": 8386,
      "▁及ぼ": 8387,
      "▁ストラ": 8388,
      "▁並ぶ": 8389,
      "▁ふと": 8390,
      "▁主導": 8391,
      "▁スコットランド": 8392,
      "▁伯爵": 8393,
      "▁スパイ": 8394,
      "ama": 8395,
      "▁総理": 8396,
      "▁一家": 8397,
      "▁0)": 8398,
      "▁僅": 8399,
      "▁パーソナ": 8400,
      "▁地形": 8401,
      "▁庶": 8402,
      "▁ガード": 8403,
      "▁外れ": 8404,
      "▁ミルク": 8405,
      "▁勃": 8406,
      "▁ボランティア": 8407,
      "▁α": 8408,
      "▁分裂": 8409,
      "▁山脈": 8410,
      "▁液体": 8411,
      "▁発注": 8412,
      "▁揚げ": 8413,
      "▁出馬": 8414,
      "▁除き": 8415,
      "▁載せ": 8416,
      "▁ねん": 8417,
      "▁操縦": 8418,
      "▁本気": 8419,
      "cont": 8420,
      "▁総会": 8421,
      "▁プル": 8422,
      "シュー": 8423,
      "8.": 8424,
      "▁ポル": 8425,
      "▁ライバル": 8426,
      "ンチン": 8427,
      "▁耐久": 8428,
      "▁認める": 8429,
      "さと": 8430,
      "▁圧縮": 8431,
      "▁star": 8432,
      "ヨン": 8433,
      "gm": 8434,
      "▁ob": 8435,
      "▁抑える": 8436,
      "▁小屋": 8437,
      "▁称号": 8438,
      "▁発着": 8439,
      "▁倒れ": 8440,
      "▁かき": 8441,
      "▁食い": 8442,
      "ティス": 8443,
      "モア": 8444,
      "▁ib": 8445,
      "▁blog": 8446,
      "▁簡易": 8447,
      "back": 8448,
      "▁手当": 8449,
      "▁ソニー": 8450,
      "▁神宮": 8451,
      "▁上級": 8452,
      "▁気味": 8453,
      "▁暑い": 8454,
      "んじ": 8455,
      "▁免疫": 8456,
      "▁彼氏": 8457,
      "▁マイナー": 8458,
      "▁耐え": 8459,
      "▁売り上げ": 8460,
      "▁郊": 8461,
      "\".": 8462,
      "▁ミッション": 8463,
      "▁マーケット": 8464,
      "▁社内": 8465,
      "▁best": 8466,
      "▁移民": 8467,
      "▁カウンセ": 8468,
      "▁フィギュア": 8469,
      "▁柴": 8470,
      "▁ナチュ": 8471,
      "▁掲示": 8472,
      "▁ボート": 8473,
      "▁ランプ": 8474,
      "▁抗議": 8475,
      "▁ホルモン": 8476,
      "▁マイケル": 8477,
      "無し": 8478,
      "eral": 8479,
      "▁上流": 8480,
      "▁領土": 8481,
      "はや": 8482,
      "▁メカ": 8483,
      "son": 8484,
      "▁開拓": 8485,
      "77": 8486,
      "▁狙っ": 8487,
      "▁仮面": 8488,
      "▁ストーン": 8489,
      "▁固有": 8490,
      "▁旬": 8491,
      "▁マウス": 8492,
      "▁android": 8493,
      "▁欧米": 8494,
      "-19": 8495,
      "▁伝承": 8496,
      "▁プラットフォーム": 8497,
      "▁ウェア": 8498,
      "べく": 8499,
      "▁記入": 8500,
      "▁なるべく": 8501,
      "▁最中": 8502,
      "帰り": 8503,
      "▁加わっ": 8504,
      "▁らし": 8505,
      "▁ever": 8506,
      "ッシャー": 8507,
      "▁super": 8508,
      "▁キロメートル": 8509,
      "▁近郊": 8510,
      "▁エンディング": 8511,
      "▁捉え": 8512,
      "▁イラン": 8513,
      "eng": 8514,
      "▁ポケモン": 8515,
      "▁堪": 8516,
      "▁シカゴ": 8517,
      "▁メタ": 8518,
      "▁原発": 8519,
      "ategory": 8520,
      "▁総務": 8521,
      "▁次ぐ": 8522,
      "▁イエス": 8523,
      "▁宴": 8524,
      "▁もたらし": 8525,
      "▁巣": 8526,
      "▁ユーザ": 8527,
      "▁尻": 8528,
      "▁味方": 8529,
      "がし": 8530,
      "▁論理": 8531,
      "ights": 8532,
      "▁tour": 8533,
      "▁戦死": 8534,
      "▁凍": 8535,
      "▁デンマーク": 8536,
      "▁合い": 8537,
      "▁すっかり": 8538,
      "ough": 8539,
      "▁代行": 8540,
      "▁包囲": 8541,
      "▁ドメ": 8542,
      "▁下位": 8543,
      "▁参謀": 8544,
      "▁プロフィール": 8545,
      "▁貼り": 8546,
      "▁郊外": 8547,
      "▁つぶ": 8548,
      "▁ケイ": 8549,
      "▁140": 8550,
      "▁チュ": 8551,
      "▁添加": 8552,
      "▁黙": 8553,
      "▁偶然": 8554,
      "▁臨床": 8555,
      "リューム": 8556,
      "▁ちゅう": 8557,
      "of": 8558,
      "▁hotel": 8559,
      "▁カテゴリ": 8560,
      "落と": 8561,
      "打ち": 8562,
      "▁取り扱い": 8563,
      "▁祐": 8564,
      "▁分散": 8565,
      "^)": 8566,
      "▁さくら": 8567,
      "▁sd": 8568,
      "▁挙げる": 8569,
      "▁三井": 8570,
      "▁セブン": 8571,
      "▁いこう": 8572,
      "▁72": 8573,
      "リエーション": 8574,
      "▁別途": 8575,
      "▁micro": 8576,
      "osh": 8577,
      "▁還元": 8578,
      "▁マツ": 8579,
      "ベリー": 8580,
      "▁豪華": 8581,
      "▁罰": 8582,
      "▁見かけ": 8583,
      "▁家臣": 8584,
      "▁たぶん": 8585,
      "ベース": 8586,
      "▁丈": 8587,
      "▁併せ": 8588,
      "▁悔": 8589,
      "▁ロイヤル": 8590,
      "▁pa": 8591,
      "▁マンガ": 8592,
      "▁レザー": 8593,
      "▁コネ": 8594,
      "▁fifa": 8595,
      "▁ポンド": 8596,
      "▁挿入": 8597,
      "▁ヘンリー": 8598,
      "▁給料": 8599,
      "▁ウエスト": 8600,
      "▁デメリット": 8601,
      "▁amer": 8602,
      "▁匂": 8603,
      "▁憧れ": 8604,
      "▁演じる": 8605,
      "▁city": 8606,
      "▁署名": 8607,
      "▁卿": 8608,
      "▁悟": 8609,
      "▁優しく": 8610,
      "▁シャン": 8611,
      "aster": 8612,
      "▁エビ": 8613,
      "▁銭": 8614,
      "▁チョコレート": 8615,
      "-9": 8616,
      "▁ストライ": 8617,
      "▁車種": 8618,
      "▁スタン": 8619,
      "▁させる": 8620,
      "▁薬局": 8621,
      "ga": 8622,
      "ーリ": 8623,
      "▁養成": 8624,
      "▁レーザー": 8625,
      "▁ストレート": 8626,
      "▁スタイ": 8627,
      "▁カジュアル": 8628,
      "▁遅い": 8629,
      "▁臭い": 8630,
      "抜き": 8631,
      "▁激しく": 8632,
      "▁展望": 8633,
      "▁恵まれ": 8634,
      "▁代金": 8635,
      "ワン": 8636,
      "▁ガリ": 8637,
      "▁シール": 8638,
      "▁パーティ": 8639,
      "iy": 8640,
      "▁排除": 8641,
      "▁1~": 8642,
      "▁化合": 8643,
      "▁mag": 8644,
      "▁残す": 8645,
      "its": 8646,
      "▁オーディション": 8647,
      "▁シナリオ": 8648,
      "▁サンタ": 8649,
      "フェン": 8650,
      "ヴァン": 8651,
      "▁天正": 8652,
      "▁飾っ": 8653,
      "▁停留": 8654,
      "▁活かし": 8655,
      "▁代わっ": 8656,
      "ツェ": 8657,
      "▁扱っ": 8658,
      "▁晩年": 8659,
      "▁活発": 8660,
      "▁うれしい": 8661,
      "▁▽": 8662,
      "yle": 8663,
      "▁精度": 8664,
      "▁数え": 8665,
      "▁牽": 8666,
      "▁拾": 8667,
      "▁au": 8668,
      "▁追放": 8669,
      "ドン": 8670,
      "▁易": 8671,
      "▁退団": 8672,
      "▁辞任": 8673,
      "わざ": 8674,
      "▁アブ": 8675,
      "▁接する": 8676,
      "▁69": 8677,
      "▁平野": 8678,
      "▁きり": 8679,
      "▁アルファ": 8680,
      "▁当局": 8681,
      "▁手帳": 8682,
      "ize": 8683,
      "▁帰還": 8684,
      "▁運命": 8685,
      "▁ネイル": 8686,
      "ha": 8687,
      "▁秩": 8688,
      "▁刃": 8689,
      "▁微妙": 8690,
      "itle": 8691,
      "▁暗殺": 8692,
      "▁バスケットボール": 8693,
      "張り": 8694,
      "▁洪": 8695,
      "替える": 8696,
      "▁フォーク": 8697,
      "port": 8698,
      "▁外し": 8699,
      "▁爆撃": 8700,
      "▁思える": 8701,
      "▁正しく": 8702,
      "▁来店": 8703,
      "▁済ま": 8704,
      "duct": 8705,
      "▁ダイニング": 8706,
      "▁累": 8707,
      "▁掴": 8708,
      "ange": 8709,
      "▁整え": 8710,
      "▁ter": 8711,
      "▁アマチュア": 8712,
      "▁屋敷": 8713,
      "▁返事": 8714,
      "▁廃車": 8715,
      "▁cor": 8716,
      "▁伝わっ": 8717,
      "▁勇気": 8718,
      "▁rem": 8719,
      "▁ほんの": 8720,
      "▁起きる": 8721,
      "▁デッキ": 8722,
      "',": 8723,
      "▁議席": 8724,
      "▁かっこ": 8725,
      "▁株主": 8726,
      "▁ピク": 8727,
      "▁会館": 8728,
      "▁トム": 8729,
      "▁ピーク": 8730,
      "▁スズ": 8731,
      "▁チェンジ": 8732,
      "▁ディレクター": 8733,
      "▁警戒": 8734,
      "▁楽しかっ": 8735,
      "▁全般": 8736,
      "▁1933": 8737,
      "▁正常": 8738,
      "▁ボリューム": 8739,
      "▁サイクル": 8740,
      "ジング": 8741,
      "▁生かし": 8742,
      "▁早期": 8743,
      "▁リオ": 8744,
      "▁濃い": 8745,
      "▁ca": 8746,
      "▁及ぶ": 8747,
      "▁愛し": 8748,
      "▁ウィル": 8749,
      "▁虐": 8750,
      "▁上演": 8751,
      "▁よー": 8752,
      "▁科目": 8753,
      "▁うつ": 8754,
      "▁余り": 8755,
      "▁ガソ": 8756,
      "cd": 8757,
      "▁移し": 8758,
      "▁コマンド": 8759,
      "▁back": 8760,
      "▁冷却": 8761,
      "blog": 8762,
      "▁ウィーン": 8763,
      "ほん": 8764,
      "らえ": 8765,
      "▁のん": 8766,
      "▁ハッ": 8767,
      "▁真剣": 8768,
      "▁カロリー": 8769,
      "ゲット": 8770,
      "1,": 8771,
      "▁打点": 8772,
      "▁いける": 8773,
      "▁立体": 8774,
      "▁12.": 8775,
      "▁飾り": 8776,
      "▁桐": 8777,
      "▁joh": 8778,
      "▁凄い": 8779,
      "istr": 8780,
      "▁sur": 8781,
      "▁要件": 8782,
      "よいよ": 8783,
      "▁いよいよ": 8784,
      "▁集まり": 8785,
      "チナ": 8786,
      "アス": 8787,
      "ato": 8788,
      "▁塚": 8789,
      "▁つくる": 8790,
      "over": 8791,
      "▁合わせる": 8792,
      "▁車内": 8793,
      "▁track": 8794,
      "▁ライオン": 8795,
      "▁シロ": 8796,
      "▁抱き": 8797,
      "review": 8798,
      "▁海洋": 8799,
      "▁戦力": 8800,
      "▁稀": 8801,
      "シスコ": 8802,
      "▁呪": 8803,
      "▁縮小": 8804,
      "▁受注": 8805,
      "▁ver": 8806,
      "▁1500": 8807,
      "▁頭皮": 8808,
      "▁冒頭": 8809,
      "▁スロ": 8810,
      "▁大い": 8811,
      "▁高価": 8812,
      "▁火山": 8813,
      "▁ミラー": 8814,
      "ana": 8815,
      "▁通学": 8816,
      "▁球場": 8817,
      "ara": 8818,
      "ートン": 8819,
      "▁純粋": 8820,
      "▁功績": 8821,
      "▁ガソリン": 8822,
      "▁守っ": 8823,
      "▁綾": 8824,
      "▁接近": 8825,
      "▁view": 8826,
      "▁説得": 8827,
      "57": 8828,
      "▁頑張り": 8829,
      "▁たけ": 8830,
      "▁めで": 8831,
      "▁︎": 8832,
      "▁深刻": 8833,
      "▁めちゃ": 8834,
      "▁花火": 8835,
      "▁弓": 8836,
      "▁初日": 8837,
      "▁原理": 8838,
      "▁工作": 8839,
      "▁ミッド": 8840,
      "▁みず": 8841,
      "▁継い": 8842,
      "▁公務": 8843,
      "▁迅": 8844,
      "▁サス": 8845,
      "▁房": 8846,
      "▁翔": 8847,
      "ぐる": 8848,
      "▁銘柄": 8849,
      "▁回っ": 8850,
      "▁美味しかっ": 8851,
      "▁mv": 8852,
      "▁ai": 8853,
      "▁宝塚": 8854,
      "▁出資": 8855,
      "▁故郷": 8856,
      "▁連覇": 8857,
      "▁移植": 8858,
      "▁1935": 8859,
      "▁切る": 8860,
      "じみ": 8861,
      "▁ミル": 8862,
      "▁比率": 8863,
      "▁1932": 8864,
      "ゴー": 8865,
      "▁放棄": 8866,
      "my": 8867,
      "▁彫刻": 8868,
      "イルド": 8869,
      "▁カッコ": 8870,
      "シウム": 8871,
      "▁提唱": 8872,
      "▁最強": 8873,
      "▁探偵": 8874,
      "▁intern": 8875,
      "▁高松": 8876,
      "▁club": 8877,
      "▁放出": 8878,
      "▁音源": 8879,
      "ese": 8880,
      "▁わたる": 8881,
      "▁叔": 8882,
      "▁寮": 8883,
      "▁腸": 8884,
      "▁幼少": 8885,
      "▁ゲル": 8886,
      "▁打っ": 8887,
      "ream": 8888,
      "コモ": 8889,
      "▁行なわ": 8890,
      "▁フレン": 8891,
      "▁たった": 8892,
      "▁個々": 8893,
      "▁ヨガ": 8894,
      "59": 8895,
      "▁sn": 8896,
      "詰め": 8897,
      "▁mr": 8898,
      "▁庭園": 8899,
      "▁講義": 8900,
      "▁編曲": 8901,
      "▁転じ": 8902,
      "▁示唆": 8903,
      "▁red": 8904,
      "▁交付": 8905,
      "▁88": 8906,
      "▁甲子": 8907,
      "▁ナショナル": 8908,
      "▁勤め": 8909,
      "▁タバ": 8910,
      "▁エッセ": 8911,
      "▁エラー": 8912,
      "▁倉庫": 8913,
      "▁フィンランド": 8914,
      "そこ": 8915,
      "▁生え": 8916,
      "▁≫": 8917,
      "▁伝わる": 8918,
      "▁有無": 8919,
      "▁桑": 8920,
      "▁アンダー": 8921,
      "▁フォース": 8922,
      "▁black": 8923,
      "round": 8924,
      "▁フォト": 8925,
      "▁代謝": 8926,
      "▁頂く": 8927,
      "▁同月": 8928,
      "▁狙い": 8929,
      "▁苗字": 8930,
      "ニコ": 8931,
      "▁五輪": 8932,
      "▁属性": 8933,
      "▁侍": 8934,
      "▁パナ": 8935,
      "▁舎": 8936,
      "▁人目": 8937,
      "▁じゃん": 8938,
      "▁ハマ": 8939,
      "▁成田": 8940,
      "▁木曜": 8941,
      "ron": 8942,
      "▁履歴": 8943,
      "▁キット": 8944,
      "▁文明": 8945,
      "▁総額": 8946,
      "▁明け": 8947,
      "▁非難": 8948,
      "▁num": 8949,
      "▁死ぬ": 8950,
      "▁アンケート": 8951,
      "▁薄く": 8952,
      "▁数十": 8953,
      "▁group": 8954,
      "▁多摩": 8955,
      "▁右側": 8956,
      "▁相模": 8957,
      "▁えき": 8958,
      "▁寝る": 8959,
      "au": 8960,
      "▁手がけ": 8961,
      "▁渡る": 8962,
      "▁国外": 8963,
      "▁カム": 8964,
      "▁ビック": 8965,
      "▁柔軟": 8966,
      "▁ストップ": 8967,
      "ータル": 8968,
      "▁上限": 8969,
      "▁三十": 8970,
      "▁マネージャー": 8971,
      "▁拓": 8972,
      "▁//": 8973,
      "▁撮り": 8974,
      "▁迷っ": 8975,
      "▁浸透": 8976,
      "▁東映": 8977,
      "▁10%": 8978,
      "▁フルーツ": 8979,
      "▁賠": 8980,
      "▁ライター": 8981,
      "▁客室": 8982,
      "ital": 8983,
      "▁into": 8984,
      "▁紛争": 8985,
      "▁木村": 8986,
      "▁後悔": 8987,
      "▁エージェ": 8988,
      "▁絵本": 8989,
      "▁lin": 8990,
      "▁合戦": 8991,
      "yr": 8992,
      "▁曹": 8993,
      "▁続編": 8994,
      "▁馴染": 8995,
      "▁ハーフ": 8996,
      "▁仕上がり": 8997,
      "▁渓": 8998,
      "▁1934": 8999,
      "▁試作": 9000,
      "▁正解": 9001,
      "▁銀河": 9002,
      "▁心地": 9003,
      "▁懸命": 9004,
      "▁蜂": 9005,
      "▁アレルギー": 9006,
      "▁リラックス": 9007,
      "▁霧": 9008,
      "▁シャワー": 9009,
      "▁cs": 9010,
      "▁偽物": 9011,
      "▁打ち上げ": 9012,
      "トー": 9013,
      "▁カニ": 9014,
      "▁総督": 9015,
      "▁題材": 9016,
      "オー": 9017,
      "/1": 9018,
      "▁芽": 9019,
      "ating": 9020,
      "▁good": 9021,
      "\"|": 9022,
      "▁del": 9023,
      "▁プチ": 9024,
      "▁宇都": 9025,
      "▁扱わ": 9026,
      "▁賠償": 9027,
      "▁塗料": 9028,
      "66": 9029,
      "box": 9030,
      "▁硫": 9031,
      "▁しゅ": 9032,
      "▁終盤": 9033,
      "way": 9034,
      "▁松山": 9035,
      "▁妥": 9036,
      "▁風味": 9037,
      "▁1928": 9038,
      "▁順番": 9039,
      "▁ハロ": 9040,
      "▁def": 9041,
      "▁醸": 9042,
      "▁高原": 9043,
      "▁ハンドル": 9044,
      "▁jun": 9045,
      "▁けっ": 9046,
      "▁揃っ": 9047,
      "▁施さ": 9048,
      "たた": 9049,
      "▁奪わ": 9050,
      "▁当主": 9051,
      "▁スタンダ": 9052,
      "▁申込": 9053,
      "▁クリエイ": 9054,
      "▁舌": 9055,
      "▁プロモーション": 9056,
      "▁岡田": 9057,
      "▁繋がり": 9058,
      "▁news": 9059,
      "▁ナチュラル": 9060,
      "▁高値": 9061,
      "ばす": 9062,
      "▁5)": 9063,
      "▁届く": 9064,
      "▁美味しく": 9065,
      "ベス": 9066,
      "▁トー": 9067,
      "▁夕食": 9068,
      "ular": 9069,
      "▁風邪": 9070,
      "▁フロア": 9071,
      "▁選考": 9072,
      "チア": 9073,
      "▁安値": 9074,
      "遣い": 9075,
      "ral": 9076,
      "▁ブーツ": 9077,
      "▁power": 9078,
      "▁キック": 9079,
      "▁未だ": 9080,
      "oss": 9081,
      "▁some": 9082,
      "▁蓮": 9083,
      "▁悪魔": 9084,
      "▁エレクト": 9085,
      "▁cop": 9086,
      "ノス": 9087,
      "▁入り口": 9088,
      "▁台車": 9089,
      "▁勝っ": 9090,
      "▁〕": 9091,
      "▁決断": 9092,
      "▁飼い": 9093,
      "▁ヒーロー": 9094,
      "須賀": 9095,
      "▁戦前": 9096,
      "▁〔": 9097,
      "▁fam": 9098,
      "▁手掛け": 9099,
      "dp": 9100,
      "▁仲介": 9101,
      "▁ann": 9102,
      "ush": 9103,
      "▁11.": 9104,
      "▁爆弾": 9105,
      "▁移っ": 9106,
      "▁書記": 9107,
      "▁発症": 9108,
      "▁持続": 9109,
      "▁佳": 9110,
      "▁琉": 9111,
      "▁blu": 9112,
      "▁育っ": 9113,
      "▁クライアント": 9114,
      "▁抜い": 9115,
      "▁マニ": 9116,
      "▁ラウ": 9117,
      "ッセル": 9118,
      "▁美し": 9119,
      "▁カーテン": 9120,
      "▁いら": 9121,
      "▁調べる": 9122,
      "▁融合": 9123,
      "▁旋": 9124,
      "▁sing": 9125,
      "▁通路": 9126,
      "▁手入れ": 9127,
      "▁ニー": 9128,
      "▁踊り": 9129,
      "▁合唱": 9130,
      "▁すっ": 9131,
      "▁max": 9132,
      "▁返品": 9133,
      "▁回線": 9134,
      "▁toky": 9135,
      "▁法的": 9136,
      "▁旅館": 9137,
      "▁1929": 9138,
      "▁mov": 9139,
      "▁向こう": 9140,
      "フラン": 9141,
      "▁ぃ": 9142,
      "ポーター": 9143,
      "▁喪": 9144,
      "▁踏まえ": 9145,
      "▁今月": 9146,
      "▁味わ": 9147,
      "▁カプ": 9148,
      "▁派生": 9149,
      "▁勿": 9150,
      "▁少々": 9151,
      "▁like": 9152,
      "▁別名": 9153,
      "▁頻度": 9154,
      "▁生態": 9155,
      "合せ": 9156,
      "▁宇都宮": 9157,
      "▁博多": 9158,
      "79": 9159,
      "▁動か": 9160,
      "▁バレエ": 9161,
      "トレ": 9162,
      "▁堤": 9163,
      "▁エー": 9164,
      "▁泳": 9165,
      "▁知り合い": 9166,
      "▁tech": 9167,
      "▁水曜": 9168,
      "▁証言": 9169,
      "▁満た": 9170,
      "▁社名": 9171,
      "▁prov": 9172,
      "▁dj": 9173,
      "しま": 9174,
      "▁フェイス": 9175,
      "▁法則": 9176,
      "▁役立つ": 9177,
      "▁パイプ": 9178,
      "▁本店": 9179,
      "▁出店": 9180,
      "▁会う": 9181,
      "▁太田": 9182,
      "▁跳": 9183,
      "ator": 9184,
      "▁づくり": 9185,
      "▁育児": 9186,
      "▁インドネシア": 9187,
      "▁附属": 9188,
      "▁羊": 9189,
      "▁チェコ": 9190,
      "▁分間": 9191,
      "▁机": 9192,
      "▁稼働": 9193,
      "▁春日": 9194,
      "▁大名": 9195,
      "▁日産": 9196,
      "▁真実": 9197,
      "▁順調": 9198,
      "▁一帯": 9199,
      "▁連勝": 9200,
      "▁デル": 9201,
      "▁誇る": 9202,
      "▁器具": 9203,
      "▁ステン": 9204,
      "▁葬儀": 9205,
      "▁読書": 9206,
      "▁add": 9207,
      "▁修行": 9208,
      "▁月額": 9209,
      "-12": 9210,
      "▁外務": 9211,
      "▁基板": 9212,
      "==": 9213,
      "▁ホント": 9214,
      "▁間違え": 9215,
      "▁部下": 9216,
      "▁休暇": 9217,
      "▁もはや": 9218,
      "▁ce": 9219,
      "▁云": 9220,
      "▁国防": 9221,
      "リフ": 9222,
      "▁努め": 9223,
      "ずる": 9224,
      "▁リサ": 9225,
      "-11": 9226,
      "レオ": 9227,
      "▁グレード": 9228,
      "▁ピザ": 9229,
      "▁cpu": 9230,
      "▁リモ": 9231,
      "▁回し": 9232,
      "▁田舎": 9233,
      "▁方言": 9234,
      "▁д": 9235,
      "▁黄金": 9236,
      "▁たとえ": 9237,
      "▁殺さ": 9238,
      "▁一員": 9239,
      "▁常識": 9240,
      "▁税金": 9241,
      "ごと": 9242,
      "▁センサー": 9243,
      "▁案件": 9244,
      "▁やさ": 9245,
      "▁mo": 9246,
      "▁特化": 9247,
      "▁dire": 9248,
      "▁助手": 9249,
      "▁usb": 9250,
      "▁エレベ": 9251,
      "ley": 9252,
      "▁ジェームズ": 9253,
      "▁トレンド": 9254,
      "▁束": 9255,
      "▁寿命": 9256,
      "▁夏休み": 9257,
      "rap": 9258,
      "********": 9259,
      "▁誓": 9260,
      "▁とれ": 9261,
      "▁店員": 9262,
      "▁本質": 9263,
      "station": 9264,
      "通し": 9265,
      "▁ヵ": 9266,
      "▁境内": 9267,
      "▁地面": 9268,
      "ople": 9269,
      "之助": 9270,
      "▁データベース": 9271,
      "▁近鉄": 9272,
      "▁釜": 9273,
      "▁ゆったり": 9274,
      "抜け": 9275,
      "▁計測": 9276,
      "▁竣": 9277,
      "▁慎重": 9278,
      "fo": 9279,
      "▁リバ": 9280,
      "▁失点": 9281,
      "▁ダーク": 9282,
      "▁only": 9283,
      "▁突入": 9284,
      "▁胴": 9285,
      "▁sal": 9286,
      "▁過ぎる": 9287,
      "▁national": 9288,
      "▁表紙": 9289,
      "▁泡": 9290,
      "▁団地": 9291,
      "▁素直": 9292,
      "▁仕掛け": 9293,
      "▁ドメイン": 9294,
      "▁主役": 9295,
      "▁絞り": 9296,
      "orts": 9297,
      "▁ラップ": 9298,
      "mer": 9299,
      "ネマ": 9300,
      "▁あふ": 9301,
      "▁diy": 9302,
      "タウン": 9303,
      "▁スロー": 9304,
      "▁リチャ": 9305,
      "▁キス": 9306,
      "▁コロンビア": 9307,
      "ニズム": 9308,
      "▁ラス": 9309,
      "▁本編": 9310,
      "アリー": 9311,
      "▁とくに": 9312,
      "▁ゆき": 9313,
      "キビ": 9314,
      "▁配列": 9315,
      "▁敗退": 9316,
      "alk": 9317,
      "▁洗面": 9318,
      "▁ヴェル": 9319,
      "▁ジェイ": 9320,
      "hz": 9321,
      "▁節約": 9322,
      "▁飛ん": 9323,
      "ンドル": 9324,
      "▁北米": 9325,
      "▁燃焼": 9326,
      "▁プログラミング": 9327,
      "▁仰": 9328,
      "▁過剰": 9329,
      "▁ヴィル": 9330,
      "▁コンテスト": 9331,
      "▁にほん": 9332,
      "use": 9333,
      "▁日光": 9334,
      "▁1931": 9335,
      "▁iii": 9336,
      "▁共感": 9337,
      "▁違和": 9338,
      "▁ドクター": 9339,
      "ペシア": 9340,
      "▁観音": 9341,
      "▁キーボード": 9342,
      "▁炒": 9343,
      "エア": 9344,
      "▁キッズ": 9345,
      "▁大橋": 9346,
      "▁延期": 9347,
      "▁降伏": 9348,
      "▁class": 9349,
      "チラ": 9350,
      "▁防水": 9351,
      "▁驚く": 9352,
      "▁抹": 9353,
      "フィン": 9354,
      "64": 9355,
      "ner": 9356,
      "▁入会": 9357,
      "ship": 9358,
      "▁将棋": 9359,
      "▁なくなり": 9360,
      "▁薩": 9361,
      "▁月刊": 9362,
      "▁益": 9363,
      "▁汚染": 9364,
      "▁シャル": 9365,
      "▁design": 9366,
      "▁タブレット": 9367,
      "ng": 9368,
      "▁堺": 9369,
      "▁ブラウザ": 9370,
      "ウィン": 9371,
      "▁わが": 9372,
      "red": 9373,
      "▁チャールズ": 9374,
      "▁親王": 9375,
      "▁全域": 9376,
      "▁店頭": 9377,
      "▁脱退": 9378,
      "イロ": 9379,
      "▁認可": 9380,
      "84": 9381,
      "▁所定": 9382,
      "▁フットボール": 9383,
      "▁匂い": 9384,
      "▁歌い": 9385,
      "▁体内": 9386,
      "テク": 9387,
      "▁cas": 9388,
      "▁液晶": 9389,
      "三郎": 9390,
      "▁カタログ": 9391,
      "▁潰": 9392,
      "って": 9393,
      "がれ": 9394,
      "▁犯人": 9395,
      "▁食堂": 9396,
      "ットン": 9397,
      "▁満たす": 9398,
      "lex": 9399,
      "▁バター": 9400,
      "▁入門": 9401,
      "▁せよ": 9402,
      "▁吊": 9403,
      "▁アルゼ": 9404,
      "js": 9405,
      "チャン": 9406,
      "▁大気": 9407,
      "▁放っ": 9408,
      "▁文部": 9409,
      "▁跡地": 9410,
      "▁trans": 9411,
      "▁スタンダード": 9412,
      "▁校舎": 9413,
      "▁増やす": 9414,
      "▁詐": 9415,
      "▁申告": 9416,
      "▁珍しく": 9417,
      "▁負荷": 9418,
      "▁疎": 9419,
      "ジメント": 9420,
      "▁ピエ": 9421,
      "▁配備": 9422,
      "▁クイズ": 9423,
      "▁見つかっ": 9424,
      "▁グラフ": 9425,
      "▁show": 9426,
      "あい": 9427,
      "▁予告": 9428,
      "▁call": 9429,
      "ient": 9430,
      "▁シミュ": 9431,
      "▁inv": 9432,
      "▁関わり": 9433,
      "▁中断": 9434,
      "▁ミックス": 9435,
      "▁細菌": 9436,
      "▁大西": 9437,
      "▁天使": 9438,
      "▁炊": 9439,
      "▁オーケ": 9440,
      "▁ホイール": 9441,
      "▁則": 9442,
      "mp": 9443,
      "▁レア": 9444,
      "▁終戦": 9445,
      "▁蓋": 9446,
      "▁騎手": 9447,
      "▁6,": 9448,
      "▁蛇": 9449,
      "▁生理": 9450,
      "▁律": 9451,
      "▁つくり": 9452,
      "▁サウ": 9453,
      "▁運賃": 9454,
      "▁ユニフォーム": 9455,
      "efa": 9456,
      "▁足利": 9457,
      "▁人種": 9458,
      "▁劣化": 9459,
      "▁category": 9460,
      "▁排気": 9461,
      "▁前面": 9462,
      "▁覚悟": 9463,
      "▁乗客": 9464,
      "▁廃棄": 9465,
      "▁テキサス": 9466,
      "立た": 9467,
      "▁構え": 9468,
      "イラ": 9469,
      "▁爽": 9470,
      "ガス": 9471,
      "▁jan": 9472,
      "ka": 9473,
      "▁教皇": 9474,
      "▁久々": 9475,
      "▁あえて": 9476,
      "▁培": 9477,
      "▁マニュ": 9478,
      "▁ゲット": 9479,
      "▁ヤマト": 9480,
      "▁har": 9481,
      "▁監査": 9482,
      "▁官僚": 9483,
      "▁処方": 9484,
      "▁ホー": 9485,
      "▁讃": 9486,
      "▁社団": 9487,
      "▁飽き": 9488,
      "もう": 9489,
      "▁アナログ": 9490,
      "▁周期": 9491,
      "dr": 9492,
      "▁損失": 9493,
      "▁プラスチック": 9494,
      "▁再編": 9495,
      "回し": 9496,
      "▁小野": 9497,
      "▁フォード": 9498,
      "ブロ": 9499,
      "▁根本": 9500,
      "▁はるか": 9501,
      "▁1927": 9502,
      "▁軍隊": 9503,
      "▁詩人": 9504,
      "▁ファー": 9505,
      "▁ストック": 9506,
      "da": 9507,
      "▁変身": 9508,
      "▁1924": 9509,
      "▁疲労": 9510,
      "▁総称": 9511,
      "▁横断": 9512,
      "▁函館": 9513,
      "▁コンプ": 9514,
      "▁校長": 9515,
      "▁:\"": 9516,
      "▁いらっしゃる": 9517,
      "▁繋がっ": 9518,
      "▁アンテナ": 9519,
      "▁あんな": 9520,
      "▁エンタ": 9521,
      "▁どっち": 9522,
      "▁施し": 9523,
      "▁エキス": 9524,
      "ッティ": 9525,
      "▁極端": 9526,
      "▁tokyo": 9527,
      "▁bel": 9528,
      "▁名無し": 9529,
      "▁竣工": 9530,
      "▁勃発": 9531,
      "ony": 9532,
      "▁東急": 9533,
      "ペット": 9534,
      "▁矯": 9535,
      "▁挟ん": 9536,
      "▁アルゼンチン": 9537,
      "▁ジャー": 9538,
      "▁笠": 9539,
      "ェル": 9540,
      "▁手続": 9541,
      "▁外出": 9542,
      "▁浜松": 9543,
      "▁made": 9544,
      "▁昼間": 9545,
      "▁クルー": 9546,
      "▁colle": 9547,
      "▁ええ": 9548,
      "▁抽出": 9549,
      "▁死刑": 9550,
      "▁迅速": 9551,
      "▁暗号": 9552,
      "▁少将": 9553,
      "▁贅": 9554,
      "\").": 9555,
      "▁洋服": 9556,
      "▁班": 9557,
      "▁ステークス": 9558,
      "▁祈り": 9559,
      "▁ピッチ": 9560,
      "▁意義": 9561,
      "▁ファイナル": 9562,
      "▁カンパ": 9563,
      "リティー": 9564,
      "/3": 9565,
      "▁jo": 9566,
      "▁典型": 9567,
      "▁反省": 9568,
      "▁尼": 9569,
      "▁届き": 9570,
      "ッタリ": 9571,
      "▁もたらす": 9572,
      "▁電流": 9573,
      "▁抱い": 9574,
      "▁カップル": 9575,
      "▁キラ": 9576,
      "シオ": 9577,
      "67": 9578,
      "▁ギア": 9579,
      "▁農家": 9580,
      "▁彦": 9581,
      "ネン": 9582,
      "▁厳しく": 9583,
      "▁ポンプ": 9584,
      "ls": 9585,
      "▁錯": 9586,
      "▁美しく": 9587,
      "▁eng": 9588,
      "▁容疑": 9589,
      "▁フォーマ": 9590,
      "▁置き換え": 9591,
      "▁信長": 9592,
      "▁頭部": 9593,
      "▁穏やか": 9594,
      "▁where": 9595,
      "▁だいたい": 9596,
      "▁存続": 9597,
      "▁幅広く": 9598,
      "velop": 9599,
      "▁pm": 9600,
      "▁国連": 9601,
      "ipt": 9602,
      "▁僅か": 9603,
      "▁上場": 9604,
      "ional": 9605,
      "▁酔": 9606,
      "▁間に": 9607,
      "▁1925": 9608,
      "▁商標": 9609,
      "▁いざ": 9610,
      "▁原題": 9611,
      "▁聖堂": 9612,
      "▁懲": 9613,
      "▁適正": 9614,
      "▁都内": 9615,
      "▁導体": 9616,
      "▁ないし": 9617,
      "▁あんまり": 9618,
      "▁おと": 9619,
      "83": 9620,
      "▁酢": 9621,
      "▁阪急": 9622,
      "▁ノウ": 9623,
      "▁sol": 9624,
      "▁マネジメント": 9625,
      "▁充分": 9626,
      "▁告白": 9627,
      "▁わざわざ": 9628,
      "▁ターゲット": 9629,
      "▁おや": 9630,
      "agram": 9631,
      "▁保湿": 9632,
      "ッポン": 9633,
      "▁縄": 9634,
      "▁ホンダ": 9635,
      "▁north": 9636,
      "▁1923": 9637,
      "▁インディアン": 9638,
      "▁スライド": 9639,
      "▁商人": 9640,
      "▁身近": 9641,
      "しか": 9642,
      "▁dna": 9643,
      "▁キャプ": 9644,
      "▁hist": 9645,
      "▁打者": 9646,
      "エー": 9647,
      "▁most": 9648,
      "▁出口": 9649,
      "her": 9650,
      "mg": 9651,
      "▁センス": 9652,
      "▁医院": 9653,
      "スラ": 9654,
      "▁安価": 9655,
      "▁ロマン": 9656,
      "▁青山": 9657,
      "row": 9658,
      "▁町名": 9659,
      "▁三振": 9660,
      "▁併用": 9661,
      "▁集まる": 9662,
      "▁read": 9663,
      "くっ": 9664,
      "▁カレッジ": 9665,
      "まま": 9666,
      "▁補償": 9667,
      "▁people": 9668,
      "▁宛": 9669,
      "▁北陸": 9670,
      "▁互換": 9671,
      "▁家督": 9672,
      "▁ついで": 9673,
      "▁蘇": 9674,
      "▁ガラ": 9675,
      "▁晋": 9676,
      "▁着い": 9677,
      "ke": 9678,
      "http": 9679,
      "▁タッグ": 9680,
      "▁先週": 9681,
      "▁tak": 9682,
      "つか": 9683,
      "▁落語": 9684,
      "ショップ": 9685,
      "▁コラム": 9686,
      "▁ネオ": 9687,
      "▁果た": 9688,
      "▁disc": 9689,
      "リューション": 9690,
      "▁織田": 9691,
      "▁ミュージカル": 9692,
      "▁火曜": 9693,
      "びり": 9694,
      "▁79": 9695,
      "▁無効": 9696,
      "▁保安": 9697,
      "ごく": 9698,
      "▁rad": 9699,
      "▁本土": 9700,
      "▁直通": 9701,
      "▁2,000": 9702,
      "▁ノルウェー": 9703,
      "▁武将": 9704,
      "▁焼肉": 9705,
      "▁カジ": 9706,
      "▁found": 9707,
      "▁矯正": 9708,
      "▁づらい": 9709,
      "▁gm": 9710,
      "▁独占": 9711,
      "▁水戸": 9712,
      "▁下がっ": 9713,
      "/09": 9714,
      "▁クルマ": 9715,
      "▁家事": 9716,
      "▁鑑賞": 9717,
      "▁ブラシ": 9718,
      "エンス": 9719,
      "▁餌": 9720,
      "▁いらっしゃい": 9721,
      "テージ": 9722,
      "▁メス": 9723,
      "▁ヤク": 9724,
      "5.": 9725,
      "▁左側": 9726,
      "▁ste": 9727,
      "▁おじ": 9728,
      "▁五十": 9729,
      "▁梁": 9730,
      "▁平面": 9731,
      "▁処刑": 9732,
      "▁かぶ": 9733,
      "▁バイパス": 9734,
      "▁師事": 9735,
      "▁担っ": 9736,
      "▁during": 9737,
      "ジーランド": 9738,
      "▁ふん": 9739,
      "▁婦人": 9740,
      "▁秀吉": 9741,
      "▁international": 9742,
      "っぱ": 9743,
      "▁意向": 9744,
      "▁1918": 9745,
      "ラシ": 9746,
      "▁株価": 9747,
      "▁勅": 9748,
      "▁ヒロイン": 9749,
      "▁紅葉": 9750,
      "▁仕え": 9751,
      "▁87": 9752,
      "▁運ん": 9753,
      "▁出会う": 9754,
      "▁童": 9755,
      "▁水平": 9756,
      "▁防災": 9757,
      "▁ニュージーランド": 9758,
      "▁惜": 9759,
      "▁単なる": 9760,
      "▁名字": 9761,
      "▁当地": 9762,
      "▁広報": 9763,
      "▁オオ": 9764,
      "▁シャネル": 9765,
      "▁ぁ": 9766,
      "▁後任": 9767,
      "▁一杯": 9768,
      "▁あー": 9769,
      "▁駿": 9770,
      "▁任じ": 9771,
      "早く": 9772,
      "▁長女": 9773,
      "▁nov": 9774,
      "▁准": 9775,
      "ハラ": 9776,
      "▁大宮": 9777,
      "▁食料": 9778,
      "▁じゅ": 9779,
      "▁先ほど": 9780,
      "▁クオ": 9781,
      "▁保つ": 9782,
      "▁追求": 9783,
      "▁沸": 9784,
      "▁存知": 9785,
      "▁こども": 9786,
      "0.": 9787,
      "▁ディーゼル": 9788,
      "▁併設": 9789,
      "こち": 9790,
      "▁取り除": 9791,
      "▁アサ": 9792,
      "▁読売": 9793,
      "▁ダニ": 9794,
      "▁中島": 9795,
      "▁鋭": 9796,
      "▁ヤング": 9797,
      "さり": 9798,
      "▁フィリップ": 9799,
      "▁--": 9800,
      "iro": 9801,
      "リーブ": 9802,
      "▁青い": 9803,
      "▁ありがたい": 9804,
      "▁years": 9805,
      "▁同等": 9806,
      "▁冷え": 9807,
      "ities": 9808,
      "デート": 9809,
      "▁インス": 9810,
      "▁視線": 9811,
      "ards": 9812,
      "\"(": 9813,
      "▁近畿": 9814,
      "▁壊れ": 9815,
      "▁男の子": 9816,
      "▁mem": 9817,
      "▁1919": 9818,
      "▁á": 9819,
      "ature": 9820,
      "▁キャップ": 9821,
      "▁水産": 9822,
      "▁篠": 9823,
      "ースター": 9824,
      "▁ビン": 9825,
      "▁xx": 9826,
      "▁適応": 9827,
      "▁結晶": 9828,
      "▁name": 9829,
      "51": 9830,
      "▁泣い": 9831,
      "▁家賃": 9832,
      "▁2~": 9833,
      "▁ドラッグ": 9834,
      "▁算出": 9835,
      "イクル": 9836,
      "▁引く": 9837,
      "▁倫": 9838,
      "▁王朝": 9839,
      "▁運搬": 9840,
      "読み": 9841,
      "▁一日": 9842,
      "▁出せ": 9843,
      "▁would": 9844,
      "▁グロ": 9845,
      "▁省略": 9846,
      "▁か所": 9847,
      ":20": 9848,
      "▁崩れ": 9849,
      "▁マックス": 9850,
      "▁ジュース": 9851,
      "▁図っ": 9852,
      "=\"2": 9853,
      "▁50%": 9854,
      "▁じっくり": 9855,
      "▁司教": 9856,
      "▁リボン": 9857,
      "▁豚肉": 9858,
      "▁5,000": 9859,
      "▁自殺": 9860,
      "▁動かし": 9861,
      "▁アンティ": 9862,
      "かつ": 9863,
      "▁ヒント": 9864,
      "▁パスワード": 9865,
      "▁シリ": 9866,
      "▁ファンタジー": 9867,
      "▁bre": 9868,
      "▁やれ": 9869,
      "▁帽子": 9870,
      "▁望む": 9871,
      "ルダー": 9872,
      "▁真ん": 9873,
      "▁集める": 9874,
      "▁合理": 9875,
      "▁天候": 9876,
      "▁大いに": 9877,
      "▁北条": 9878,
      "▁贅沢": 9879,
      "▁小川": 9880,
      "▁英雄": 9881,
      "/4": 9882,
      "ウルス": 9883,
      "▁射撃": 9884,
      "yn": 9885,
      "▁備える": 9886,
      "▁前田": 9887,
      "▁村上": 9888,
      "掛ける": 9889,
      "ナショナル": 9890,
      "que": 9891,
      "yl": 9892,
      "▁決議": 9893,
      "▁頼ん": 9894,
      "ニカ": 9895,
      "▁レモン": 9896,
      "▁ボストン": 9897,
      "▁耕": 9898,
      "▁しり": 9899,
      "▁ヤード": 9900,
      "▁house": 9901,
      "▁祀": 9902,
      "▁米軍": 9903,
      "▁目立つ": 9904,
      "▁tom": 9905,
      "▁south": 9906,
      "▁ウェル": 9907,
      "▁運航": 9908,
      "8)": 9909,
      "▁たまたま": 9910,
      "▁━": 9911,
      "▁無限": 9912,
      "▁マド": 9913,
      "wh": 9914,
      "▁惹": 9915,
      "明け": 9916,
      "だし": 9917,
      "アフ": 9918,
      "▁破り": 9919,
      "rough": 9920,
      "▁残業": 9921,
      "▁補修": 9922,
      "▁かく": 9923,
      "▁内装": 9924,
      "▁幼い": 9925,
      "▁動員": 9926,
      "▁仲良く": 9927,
      "▁ちなん": 9928,
      "▁服装": 9929,
      "▁フラワー": 9930,
      "▁受け付け": 9931,
      "▁体操": 9932,
      "▁後日": 9933,
      "▁again": 9934,
      "▁big": 9935,
      "▁メソ": 9936,
      "▁造船": 9937,
      "▁パーソナリティ": 9938,
      "▁ガイ": 9939,
      "▁クラン": 9940,
      "▁内蔵": 9941,
      "エフ": 9942,
      "▁後輩": 9943,
      "▁賑": 9944,
      "ゲル": 9945,
      "▁運輸": 9946,
      "▁そちら": 9947,
      "▁退任": 9948,
      "69": 9949,
      "▁him": 9950,
      "▁リチャード": 9951,
      "▁1926": 9952,
      "▁company": 9953,
      "▁∀": 9954,
      "▁橋本": 9955,
      "▁受け取っ": 9956,
      "▁well": 9957,
      "▁カレンダー": 9958,
      "/07": 9959,
      "▁カス": 9960,
      "▁猿": 9961,
      "▁レーダー": 9962,
      "▁駄": 9963,
      "▁戻し": 9964,
      "▁目覚": 9965,
      "▁亮": 9966,
      "▁餃": 9967,
      "▁うな": 9968,
      "▁対決": 9969,
      "▁ジャーナ": 9970,
      "▁慶長": 9971,
      "▁法令": 9972,
      "▁返還": 9973,
      "ラート": 9974,
      "5)": 9975,
      "▁役者": 9976,
      "▁supp": 9977,
      "▁ボーイ": 9978,
      "▁バナ": 9979,
      "九州": 9980,
      "▁航海": 9981,
      "▁北九州": 9982,
      "▁建立": 9983,
      "▁マリー": 9984,
      "▁動向": 9985,
      "▁船団": 9986,
      "▁島根": 9987,
      "▁仕方ない": 9988,
      "▁大隊": 9989,
      "▁おもちゃ": 9990,
      "▁ステーキ": 9991,
      "▁ピーター": 9992,
      "▁琉球": 9993,
      "▁ウェスト": 9994,
      "▁97": 9995,
      "▁家康": 9996,
      "▁対面": 9997,
      "▁cur": 9998,
      "▁支払う": 9999,
      "▁mt": 10000,
      "▁高まっ": 10001,
      "リッシュ": 10002,
      "no": 10003,
      "▁ミー": 10004,
      "▁見舞": 10005,
      "▁ふたり": 10006,
      "▁動かす": 10007,
      "▁リクエスト": 10008,
      "スティバル": 10009,
      "カンド": 10010,
      "▁餃子": 10011,
      "▁許し": 10012,
      "ペル": 10013,
      "▁賞金": 10014,
      "ラント": 10015,
      "▁インディ": 10016,
      "▁pv": 10017,
      "▁サウス": 10018,
      "▁遠い": 10019,
      "type": 10020,
      "▁高山": 10021,
      "▁天体": 10022,
      "▁地獄": 10023,
      "通り": 10024,
      "▁オシャ": 10025,
      "▁果実": 10026,
      "▁アップデート": 10027,
      "lement": 10028,
      "▁隙間": 10029,
      "ru": 10030,
      "▁遭遇": 10031,
      "▁身分": 10032,
      "▁遺体": 10033,
      "▁小物": 10034,
      "▁欠かせ": 10035,
      "▁歩行": 10036,
      "▁混雑": 10037,
      "iver": 10038,
      "▁載っ": 10039,
      "▁色んな": 10040,
      "▁告げ": 10041,
      "▁アコ": 10042,
      "▁余計": 10043,
      "▁アーム": 10044,
      "▁割れ": 10045,
      "▁3,000": 10046,
      "▁ブルガ": 10047,
      "▁地中": 10048,
      "▁人格": 10049,
      "ray": 10050,
      "▁加える": 10051,
      "▁シュート": 10052,
      "▁通い": 10053,
      "▁おもしろ": 10054,
      "=\"2\"|": 10055,
      "据え": 10056,
      "▁流域": 10057,
      "▁識別": 10058,
      "▁搭乗": 10059,
      "▁半数": 10060,
      "▁develop": 10061,
      "▁敗戦": 10062,
      "fore": 10063,
      "▁ものす": 10064,
      "search": 10065,
      "▁イケ": 10066,
      "▁海峡": 10067,
      "ーん": 10068,
      "▁1900": 10069,
      "▁ノミ": 10070,
      "▁最悪": 10071,
      "ior": 10072,
      "▁媒体": 10073,
      "▁格好": 10074,
      "▁評議": 10075,
      "▁制服": 10076,
      "▁減らす": 10077,
      "▁マサ": 10078,
      "▁大体": 10079,
      "▁揚": 10080,
      "▁蒲": 10081,
      "▁ロケ": 10082,
      "▁祝日": 10083,
      "▁立派": 10084,
      "itor": 10085,
      "▁喫し": 10086,
      "▁グラフィック": 10087,
      "▁オーガ": 10088,
      "▁熱帯": 10089,
      "▁美味し": 10090,
      "▁種目": 10091,
      "▁予報": 10092,
      "▁降格": 10093,
      "▁ニット": 10094,
      "▁ドット": 10095,
      "▁やろう": 10096,
      "▁ごはん": 10097,
      "▁賃金": 10098,
      "▁制し": 10099,
      "▁まいり": 10100,
      "▁1%": 10101,
      "count": 10102,
      "▁生存": 10103,
      "▁テル": 10104,
      "▁指輪": 10105,
      "▁清潔": 10106,
      "▁つの": 10107,
      "▁すい": 10108,
      "▁ntt": 10109,
      "92": 10110,
      "▁真ん中": 10111,
      "▁ke": 10112,
      "▁起業": 10113,
      "▁next": 10114,
      "▁進歩": 10115,
      "ning": 10116,
      "▁bus": 10117,
      "▁壮": 10118,
      "▁国籍": 10119,
      "▁不可欠": 10120,
      "▁uefa": 10121,
      "▁屋外": 10122,
      "▁新田": 10123,
      "▁陥っ": 10124,
      "セロ": 10125,
      "▁木造": 10126,
      "▁小売": 10127,
      "▁市川": 10128,
      "▁すっきり": 10129,
      "▁捕虜": 10130,
      "▁プロテ": 10131,
      "むら": 10132,
      "va": 10133,
      "▁利点": 10134,
      "▁ミドル": 10135,
      "▁疑い": 10136,
      "▁拭": 10137,
      "▁sr": 10138,
      "▁但し": 10139,
      "▁東海道": 10140,
      "▁学問": 10141,
      "▁伺い": 10142,
      "▁細かく": 10143,
      "▁増大": 10144,
      "▁比例": 10145,
      "▁小倉": 10146,
      "▁船舶": 10147,
      "▁造り": 10148,
      "▁血管": 10149,
      "▁1922": 10150,
      "▁行方": 10151,
      "▁人権": 10152,
      "▁戦時": 10153,
      "▁排水": 10154,
      "▁指数": 10155,
      "▁せよう": 10156,
      "▁百貨": 10157,
      "▁さっき": 10158,
      "▁チャー": 10159,
      "▁突っ": 10160,
      "らめ": 10161,
      "▁先駆": 10162,
      "▁達する": 10163,
      "▁築い": 10164,
      "▁士官": 10165,
      "▁オシャレ": 10166,
      "▁早朝": 10167,
      "▁牛乳": 10168,
      "set": 10169,
      "▁天王": 10170,
      "▁繰り広": 10171,
      "▁検定": 10172,
      "▁コチラ": 10173,
      "▁ペーパー": 10174,
      "ari": 10175,
      "▁リハ": 10176,
      "▁応え": 10177,
      "▁違法": 10178,
      "▁長谷": 10179,
      "▁run": 10180,
      "▁むら": 10181,
      "▁じゅう": 10182,
      "▁男爵": 10183,
      "ロイド": 10184,
      "▁レイン": 10185,
      "▁ますます": 10186,
      "▁パーセント": 10187,
      "▁テイク": 10188,
      "▁経費": 10189,
      "▁肉体": 10190,
      "▁おかしい": 10191,
      "ジラ": 10192,
      "▁近づい": 10193,
      "かしい": 10194,
      "▁詐欺": 10195,
      "▁各社": 10196,
      "▁エリザ": 10197,
      "▁下流": 10198,
      "▁ir": 10199,
      "▁イラク": 10200,
      "▁ツイン": 10201,
      "▁df": 10202,
      "▁定員": 10203,
      "▁ネコ": 10204,
      "▁横須賀": 10205,
      "▁実態": 10206,
      "▁取り組む": 10207,
      "押し": 10208,
      "▁ピー": 10209,
      "data": 10210,
      "▁落ちる": 10211,
      "レム": 10212,
      "▁海水": 10213,
      "▁イタリアン": 10214,
      "vis": 10215,
      "▁さいたま": 10216,
      "aff": 10217,
      "▁繰り返す": 10218,
      "▁real": 10219,
      "▁歪": 10220,
      "▁謙": 10221,
      "▁維新": 10222,
      "ished": 10223,
      "ism": 10224,
      "まさ": 10225,
      "/06": 10226,
      "▁ストロ": 10227,
      "▁ts": 10228,
      "▁est": 10229,
      "▁都心": 10230,
      "▁変遷": 10231,
      "▁中日": 10232,
      "▁倒し": 10233,
      "▁": 10234,
      "の": 10235,
      "、": 10236,
      "に": 10237,
      "。": 10238,
      "い": 10239,
      "た": 10240,
      "し": 10241,
      "で": 10242,
      "る": 10243,
      "と": 10244,
      "て": 10245,
      "は": 10246,
      "ー": 10247,
      "を": 10248,
      "が": 10249,
      "な": 10250,
      "ン": 10251,
      "す": 10252,
      "れ": 10253,
      "1": 10254,
      "ま": 10255,
      "っ": 10256,
      "か": 10257,
      "e": 10258,
      "も": 10259,
      "0": 10260,
      "り": 10261,
      "ら": 10262,
      "a": 10263,
      "ス": 10264,
      "こ": 10265,
      "2": 10266,
      "う": 10267,
      "t": 10268,
      "ル": 10269,
      "あ": 10270,
      "ト": 10271,
      "さ": 10272,
      "o": 10273,
      "i": 10274,
      "イ": 10275,
      ".": 10276,
      "n": 10277,
      "く": 10278,
      "年": 10279,
      "(": 10280,
      ")": 10281,
      "s": 10282,
      "r": 10283,
      "リ": 10284,
      "ッ": 10285,
      "ラ": 10286,
      "き": 10287,
      "・": 10288,
      "ん": 10289,
      "ア": 10290,
      "よ": 10291,
      "ク": 10292,
      "日": 10293,
      "そ": 10294,
      "9": 10295,
      "l": 10296,
      "だ": 10297,
      "c": 10298,
      "け": 10299,
      "「": 10300,
      "」": 10301,
      "お": 10302,
      "3": 10303,
      "m": 10304,
      "d": 10305,
      "シ": 10306,
      "め": 10307,
      "h": 10308,
      "ド": 10309,
      "タ": 10310,
      "5": 10311,
      "人": 10312,
      "ど": 10313,
      "4": 10314,
      "レ": 10315,
      "や": 10316,
      "大": 10317,
      "フ": 10318,
      "え": 10319,
      "ロ": 10320,
      "8": 10321,
      "つ": 10322,
      "p": 10323,
      "プ": 10324,
      "月": 10325,
      "u": 10326,
      "カ": 10327,
      "6": 10328,
      "ジ": 10329,
      "わ": 10330,
      "7": 10331,
      "ち": 10332,
      "本": 10333,
      "テ": 10334,
      "コ": 10335,
      "グ": 10336,
      "マ": 10337,
      "一": 10338,
      "出": 10339,
      "g": 10340,
      "中": 10341,
      "ム": 10342,
      "バ": 10343,
      "せ": 10344,
      "時": 10345,
      "行": 10346,
      "ィ": 10347,
      "f": 10348,
      "み": 10349,
      "b": 10350,
      "メ": 10351,
      "デ": 10352,
      "サ": 10353,
      "分": 10354,
      "合": 10355,
      "学": 10356,
      "チ": 10357,
      "上": 10358,
      "用": 10359,
      "会": 10360,
      "場": 10361,
      "オ": 10362,
      "事": 10363,
      "国": 10364,
      "ブ": 10365,
      "キ": 10366,
      "生": 10367,
      "ウ": 10368,
      "w": 10369,
      "間": 10370,
      "後": 10371,
      "方": 10372,
      "ニ": 10373,
      ",": 10374,
      "-": 10375,
      "ャ": 10376,
      "ば": 10377,
      "ュ": 10378,
      "作": 10379,
      "入": 10380,
      "地": 10381,
      "y": 10382,
      ":": 10383,
      "部": 10384,
      "的": 10385,
      "パ": 10386,
      "エ": 10387,
      "自": 10388,
      "じ": 10389,
      "ナ": 10390,
      "ビ": 10391,
[...]
